{
  "version": "1.0",
  "truncation": null,
  "padding": null,
  "added_tokens": [
    {
      "id": 0,
      "content": "<pad>",
      "single_word": false,
      "lstrip": false,
      "rstrip": false,
      "normalized": false,
      "special": true
    },
    {
      "id": 1,
      "content": "<unk>",
      "single_word": false,
      "lstrip": false,
      "rstrip": false,
      "normalized": false,
      "special": true
    },
    {
      "id": 2,
      "content": "<s>",
      "single_word": false,
      "lstrip": false,
      "rstrip": false,
      "normalized": false,
      "special": true
    },
    {
      "id": 3,
      "content": "</s>",
      "single_word": false,
      "lstrip": false,
      "rstrip": false,
      "normalized": false,
      "special": true
    },
    {
      "id": 4,
      "content": "<CODE>",
      "single_word": false,
      "lstrip": false,
      "rstrip": false,
      "normalized": false,
      "special": true
    },
    {
      "id": 5,
      "content": "</CODE>",
      "single_word": false,
      "lstrip": false,
      "rstrip": false,
      "normalized": false,
      "special": true
    },
    {
      "id": 6,
      "content": "<LOG>",
      "single_word": false,
      "lstrip": false,
      "rstrip": false,
      "normalized": false,
      "special": true
    },
    {
      "id": 7,
      "content": "</LOG>",
      "single_word": false,
      "lstrip": false,
      "rstrip": false,
      "normalized": false,
      "special": true
    },
    {
      "id": 8,
      "content": "<PACKET>",
      "single_word": false,
      "lstrip": false,
      "rstrip": false,
      "normalized": false,
      "special": true
    },
    {
      "id": 9,
      "content": "</PACKET>",
      "single_word": false,
      "lstrip": false,
      "rstrip": false,
      "normalized": false,
      "special": true
    },
    {
      "id": 10,
      "content": "<ERROR>",
      "single_word": false,
      "lstrip": false,
      "rstrip": false,
      "normalized": false,
      "special": true
    },
    {
      "id": 11,
      "content": "</ERROR>",
      "single_word": false,
      "lstrip": false,
      "rstrip": false,
      "normalized": false,
      "special": true
    },
    {
      "id": 12,
      "content": "<CONNECT>",
      "single_word": false,
      "lstrip": false,
      "rstrip": false,
      "normalized": false,
      "special": true
    },
    {
      "id": 13,
      "content": "<BIND>",
      "single_word": false,
      "lstrip": false,
      "rstrip": false,
      "normalized": false,
      "special": true
    },
    {
      "id": 14,
      "content": "<LISTEN>",
      "single_word": false,
      "lstrip": false,
      "rstrip": false,
      "normalized": false,
      "special": true
    },
    {
      "id": 15,
      "content": "<ACCEPT>",
      "single_word": false,
      "lstrip": false,
      "rstrip": false,
      "normalized": false,
      "special": true
    },
    {
      "id": 16,
      "content": "<HANDSHAKE>",
      "single_word": false,
      "lstrip": false,
      "rstrip": false,
      "normalized": false,
      "special": true
    },
    {
      "id": 17,
      "content": "<NEGOTIATE>",
      "single_word": false,
      "lstrip": false,
      "rstrip": false,
      "normalized": false,
      "special": true
    },
    {
      "id": 18,
      "content": "<SYN>",
      "single_word": false,
      "lstrip": false,
      "rstrip": false,
      "normalized": false,
      "special": true
    },
    {
      "id": 19,
      "content": "<ACK>",
      "single_word": false,
      "lstrip": false,
      "rstrip": false,
      "normalized": false,
      "special": true
    },
    {
      "id": 20,
      "content": "<FIN>",
      "single_word": false,
      "lstrip": false,
      "rstrip": false,
      "normalized": false,
      "special": true
    },
    {
      "id": 21,
      "content": "<SEND>",
      "single_word": false,
      "lstrip": false,
      "rstrip": false,
      "normalized": false,
      "special": true
    },
    {
      "id": 22,
      "content": "<RECV>",
      "single_word": false,
      "lstrip": false,
      "rstrip": false,
      "normalized": false,
      "special": true
    },
    {
      "id": 23,
      "content": "<TRANSMIT>",
      "single_word": false,
      "lstrip": false,
      "rstrip": false,
      "normalized": false,
      "special": true
    },
    {
      "id": 24,
      "content": "<RECEIVE>",
      "single_word": false,
      "lstrip": false,
      "rstrip": false,
      "normalized": false,
      "special": true
    },
    {
      "id": 25,
      "content": "<REQUEST>",
      "single_word": false,
      "lstrip": false,
      "rstrip": false,
      "normalized": false,
      "special": true
    },
    {
      "id": 26,
      "content": "<RESPONSE>",
      "single_word": false,
      "lstrip": false,
      "rstrip": false,
      "normalized": false,
      "special": true
    },
    {
      "id": 27,
      "content": "<GET>",
      "single_word": false,
      "lstrip": false,
      "rstrip": false,
      "normalized": false,
      "special": true
    },
    {
      "id": 28,
      "content": "<POST>",
      "single_word": false,
      "lstrip": false,
      "rstrip": false,
      "normalized": false,
      "special": true
    },
    {
      "id": 29,
      "content": "<PUT>",
      "single_word": false,
      "lstrip": false,
      "rstrip": false,
      "normalized": false,
      "special": true
    },
    {
      "id": 30,
      "content": "<DELETE>",
      "single_word": false,
      "lstrip": false,
      "rstrip": false,
      "normalized": false,
      "special": true
    },
    {
      "id": 31,
      "content": "<POLL>",
      "single_word": false,
      "lstrip": false,
      "rstrip": false,
      "normalized": false,
      "special": true
    },
    {
      "id": 32,
      "content": "<PING>",
      "single_word": false,
      "lstrip": false,
      "rstrip": false,
      "normalized": false,
      "special": true
    },
    {
      "id": 33,
      "content": "<CLOSE>",
      "single_word": false,
      "lstrip": false,
      "rstrip": false,
      "normalized": false,
      "special": true
    },
    {
      "id": 34,
      "content": "<TIMEOUT>",
      "single_word": false,
      "lstrip": false,
      "rstrip": false,
      "normalized": false,
      "special": true
    },
    {
      "id": 35,
      "content": "<SUCCESS>",
      "single_word": false,
      "lstrip": false,
      "rstrip": false,
      "normalized": false,
      "special": true
    },
    {
      "id": 36,
      "content": "<FAILURE>",
      "single_word": false,
      "lstrip": false,
      "rstrip": false,
      "normalized": false,
      "special": true
    },
    {
      "id": 37,
      "content": "<PENDING>",
      "single_word": false,
      "lstrip": false,
      "rstrip": false,
      "normalized": false,
      "special": true
    },
    {
      "id": 38,
      "content": "<RETRY>",
      "single_word": false,
      "lstrip": false,
      "rstrip": false,
      "normalized": false,
      "special": true
    },
    {
      "id": 39,
      "content": "<DEADLINE_EXCEEDED>",
      "single_word": false,
      "lstrip": false,
      "rstrip": false,
      "normalized": false,
      "special": true
    },
    {
      "id": 40,
      "content": "<OK>",
      "single_word": false,
      "lstrip": false,
      "rstrip": false,
      "normalized": false,
      "special": true
    },
    {
      "id": 41,
      "content": "<CONNECTION_REFUSED>",
      "single_word": false,
      "lstrip": false,
      "rstrip": false,
      "normalized": false,
      "special": true
    },
    {
      "id": 42,
      "content": "<PROTOCOL_ERROR>",
      "single_word": false,
      "lstrip": false,
      "rstrip": false,
      "normalized": false,
      "special": true
    },
    {
      "id": 43,
      "content": "<UNAUTHORIZED>",
      "single_word": false,
      "lstrip": false,
      "rstrip": false,
      "normalized": false,
      "special": true
    },
    {
      "id": 44,
      "content": "<FORBIDDEN>",
      "single_word": false,
      "lstrip": false,
      "rstrip": false,
      "normalized": false,
      "special": true
    },
    {
      "id": 45,
      "content": "<NOT_FOUND>",
      "single_word": false,
      "lstrip": false,
      "rstrip": false,
      "normalized": false,
      "special": true
    },
    {
      "id": 46,
      "content": "<SERVER_ERROR>",
      "single_word": false,
      "lstrip": false,
      "rstrip": false,
      "normalized": false,
      "special": true
    },
    {
      "id": 47,
      "content": "<HTTP/1.1>",
      "single_word": false,
      "lstrip": false,
      "rstrip": false,
      "normalized": false,
      "special": true
    },
    {
      "id": 48,
      "content": "<HTTP/2>",
      "single_word": false,
      "lstrip": false,
      "rstrip": false,
      "normalized": false,
      "special": true
    },
    {
      "id": 49,
      "content": "<TCP>",
      "single_word": false,
      "lstrip": false,
      "rstrip": false,
      "normalized": false,
      "special": true
    },
    {
      "id": 50,
      "content": "<UDP>",
      "single_word": false,
      "lstrip": false,
      "rstrip": false,
      "normalized": false,
      "special": true
    },
    {
      "id": 51,
      "content": "<ICMP>",
      "single_word": false,
      "lstrip": false,
      "rstrip": false,
      "normalized": false,
      "special": true
    },
    {
      "id": 52,
      "content": "<ARP>",
      "single_word": false,
      "lstrip": false,
      "rstrip": false,
      "normalized": false,
      "special": true
    },
    {
      "id": 53,
      "content": "<QUIC>",
      "single_word": false,
      "lstrip": false,
      "rstrip": false,
      "normalized": false,
      "special": true
    },
    {
      "id": 54,
      "content": "<WEBSOCKET>",
      "single_word": false,
      "lstrip": false,
      "rstrip": false,
      "normalized": false,
      "special": true
    },
    {
      "id": 55,
      "content": "<gRPC>",
      "single_word": false,
      "lstrip": false,
      "rstrip": false,
      "normalized": false,
      "special": true
    },
    {
      "id": 56,
      "content": "<MQTT>",
      "single_word": false,
      "lstrip": false,
      "rstrip": false,
      "normalized": false,
      "special": true
    },
    {
      "id": 57,
      "content": "<COAP>",
      "single_word": false,
      "lstrip": false,
      "rstrip": false,
      "normalized": false,
      "special": true
    },
    {
      "id": 58,
      "content": "<FTP>",
      "single_word": false,
      "lstrip": false,
      "rstrip": false,
      "normalized": false,
      "special": true
    },
    {
      "id": 59,
      "content": "<SSH>",
      "single_word": false,
      "lstrip": false,
      "rstrip": false,
      "normalized": false,
      "special": true
    },
    {
      "id": 60,
      "content": "<BGP>",
      "single_word": false,
      "lstrip": false,
      "rstrip": false,
      "normalized": false,
      "special": true
    },
    {
      "id": 61,
      "content": "<OSPF>",
      "single_word": false,
      "lstrip": false,
      "rstrip": false,
      "normalized": false,
      "special": true
    },
    {
      "id": 62,
      "content": "<DNS>",
      "single_word": false,
      "lstrip": false,
      "rstrip": false,
      "normalized": false,
      "special": true
    },
    {
      "id": 63,
      "content": "<DHCP>",
      "single_word": false,
      "lstrip": false,
      "rstrip": false,
      "normalized": false,
      "special": true
    },
    {
      "id": 64,
      "content": "<TLS>",
      "single_word": false,
      "lstrip": false,
      "rstrip": false,
      "normalized": false,
      "special": true
    },
    {
      "id": 65,
      "content": "<SSL>",
      "single_word": false,
      "lstrip": false,
      "rstrip": false,
      "normalized": false,
      "special": true
    },
    {
      "id": 66,
      "content": "<IPsec>",
      "single_word": false,
      "lstrip": false,
      "rstrip": false,
      "normalized": false,
      "special": true
    },
    {
      "id": 67,
      "content": "<RTP>",
      "single_word": false,
      "lstrip": false,
      "rstrip": false,
      "normalized": false,
      "special": true
    },
    {
      "id": 68,
      "content": "<SIP>",
      "single_word": false,
      "lstrip": false,
      "rstrip": false,
      "normalized": false,
      "special": true
    },
    {
      "id": 69,
      "content": "<JSON>",
      "single_word": false,
      "lstrip": false,
      "rstrip": false,
      "normalized": false,
      "special": true
    },
    {
      "id": 70,
      "content": "<XML>",
      "single_word": false,
      "lstrip": false,
      "rstrip": false,
      "normalized": false,
      "special": true
    },
    {
      "id": 71,
      "content": "<YAML>",
      "single_word": false,
      "lstrip": false,
      "rstrip": false,
      "normalized": false,
      "special": true
    },
    {
      "id": 72,
      "content": "<PROTOBUF>",
      "single_word": false,
      "lstrip": false,
      "rstrip": false,
      "normalized": false,
      "special": true
    },
    {
      "id": 73,
      "content": "<AVRO>",
      "single_word": false,
      "lstrip": false,
      "rstrip": false,
      "normalized": false,
      "special": true
    },
    {
      "id": 74,
      "content": "<CBOR>",
      "single_word": false,
      "lstrip": false,
      "rstrip": false,
      "normalized": false,
      "special": true
    },
    {
      "id": 75,
      "content": "<GZIP>",
      "single_word": false,
      "lstrip": false,
      "rstrip": false,
      "normalized": false,
      "special": true
    },
    {
      "id": 76,
      "content": "<ZLIB>",
      "single_word": false,
      "lstrip": false,
      "rstrip": false,
      "normalized": false,
      "special": true
    },
    {
      "id": 77,
      "content": "<SERVER>",
      "single_word": false,
      "lstrip": false,
      "rstrip": false,
      "normalized": false,
      "special": true
    },
    {
      "id": 78,
      "content": "<CLIENT>",
      "single_word": false,
      "lstrip": false,
      "rstrip": false,
      "normalized": false,
      "special": true
    },
    {
      "id": 79,
      "content": "<PORT>",
      "single_word": false,
      "lstrip": false,
      "rstrip": false,
      "normalized": false,
      "special": true
    },
    {
      "id": 80,
      "content": "<ADDRESS>",
      "single_word": false,
      "lstrip": false,
      "rstrip": false,
      "normalized": false,
      "special": true
    },
    {
      "id": 81,
      "content": "<IP>",
      "single_word": false,
      "lstrip": false,
      "rstrip": false,
      "normalized": false,
      "special": true
    },
    {
      "id": 82,
      "content": "<MAC>",
      "single_word": false,
      "lstrip": false,
      "rstrip": false,
      "normalized": false,
      "special": true
    },
    {
      "id": 83,
      "content": "<HOSTNAME>",
      "single_word": false,
      "lstrip": false,
      "rstrip": false,
      "normalized": false,
      "special": true
    },
    {
      "id": 84,
      "content": "<ROUTER>",
      "single_word": false,
      "lstrip": false,
      "rstrip": false,
      "normalized": false,
      "special": true
    },
    {
      "id": 85,
      "content": "<SWITCH>",
      "single_word": false,
      "lstrip": false,
      "rstrip": false,
      "normalized": false,
      "special": true
    },
    {
      "id": 86,
      "content": "<GATEWAY>",
      "single_word": false,
      "lstrip": false,
      "rstrip": false,
      "normalized": false,
      "special": true
    },
    {
      "id": 87,
      "content": "<FIREWALL>",
      "single_word": false,
      "lstrip": false,
      "rstrip": false,
      "normalized": false,
      "special": true
    },
    {
      "id": 88,
      "content": "<LOAD_BALANCER>",
      "single_word": false,
      "lstrip": false,
      "rstrip": false,
      "normalized": false,
      "special": true
    },
    {
      "id": 89,
      "content": "<VPN>",
      "single_word": false,
      "lstrip": false,
      "rstrip": false,
      "normalized": false,
      "special": true
    },
    {
      "id": 90,
      "content": "<DNS_SERVER>",
      "single_word": false,
      "lstrip": false,
      "rstrip": false,
      "normalized": false,
      "special": true
    },
    {
      "id": 91,
      "content": "<NAT_DEVICE>",
      "single_word": false,
      "lstrip": false,
      "rstrip": false,
      "normalized": false,
      "special": true
    },
    {
      "id": 92,
      "content": "<PAYLOAD>",
      "single_word": false,
      "lstrip": false,
      "rstrip": false,
      "normalized": false,
      "special": true
    },
    {
      "id": 93,
      "content": "<HEADER>",
      "single_word": false,
      "lstrip": false,
      "rstrip": false,
      "normalized": false,
      "special": true
    },
    {
      "id": 94,
      "content": "<PACKET_HEADER>",
      "single_word": false,
      "lstrip": false,
      "rstrip": false,
      "normalized": false,
      "special": true
    },
    {
      "id": 95,
      "content": "<PACKET_BODY>",
      "single_word": false,
      "lstrip": false,
      "rstrip": false,
      "normalized": false,
      "special": true
    },
    {
      "id": 96,
      "content": "<SOURCE_IP>",
      "single_word": false,
      "lstrip": false,
      "rstrip": false,
      "normalized": false,
      "special": true
    },
    {
      "id": 97,
      "content": "<DESTINATION_IP>",
      "single_word": false,
      "lstrip": false,
      "rstrip": false,
      "normalized": false,
      "special": true
    },
    {
      "id": 98,
      "content": "<SOURCE_PORT>",
      "single_word": false,
      "lstrip": false,
      "rstrip": false,
      "normalized": false,
      "special": true
    },
    {
      "id": 99,
      "content": "<DESTINATION_PORT>",
      "single_word": false,
      "lstrip": false,
      "rstrip": false,
      "normalized": false,
      "special": true
    },
    {
      "id": 100,
      "content": "<PROTOCOL_TYPE>",
      "single_word": false,
      "lstrip": false,
      "rstrip": false,
      "normalized": false,
      "special": true
    },
    {
      "id": 101,
      "content": "<PACKET_SIZE>",
      "single_word": false,
      "lstrip": false,
      "rstrip": false,
      "normalized": false,
      "special": true
    },
    {
      "id": 102,
      "content": "<PAYLOAD_LENGTH>",
      "single_word": false,
      "lstrip": false,
      "rstrip": false,
      "normalized": false,
      "special": true
    },
    {
      "id": 103,
      "content": "<TIMESTAMP>",
      "single_word": false,
      "lstrip": false,
      "rstrip": false,
      "normalized": false,
      "special": true
    },
    {
      "id": 104,
      "content": "<LEVEL>",
      "single_word": false,
      "lstrip": false,
      "rstrip": false,
      "normalized": false,
      "special": true
    },
    {
      "id": 105,
      "content": "<MESSAGE>",
      "single_word": false,
      "lstrip": false,
      "rstrip": false,
      "normalized": false,
      "special": true
    },
    {
      "id": 106,
      "content": "<TRACE_ID>",
      "single_word": false,
      "lstrip": false,
      "rstrip": false,
      "normalized": false,
      "special": true
    },
    {
      "id": 107,
      "content": "<SESSION_ID>",
      "single_word": false,
      "lstrip": false,
      "rstrip": false,
      "normalized": false,
      "special": true
    },
    {
      "id": 108,
      "content": "<EVENT_ID>",
      "single_word": false,
      "lstrip": false,
      "rstrip": false,
      "normalized": false,
      "special": true
    },
    {
      "id": 109,
      "content": "<SYSLOG>",
      "single_word": false,
      "lstrip": false,
      "rstrip": false,
      "normalized": false,
      "special": true
    },
    {
      "id": 110,
      "content": "<JSON_LOG>",
      "single_word": false,
      "lstrip": false,
      "rstrip": false,
      "normalized": false,
      "special": true
    }
  ],
  "normalizer": null,
  "pre_tokenizer": {
    "type": "ByteLevel",
    "add_prefix_space": false,
    "trim_offsets": true,
    "use_regex": true
  },
  "post_processor": {
    "type": "ByteLevel",
    "add_prefix_space": true,
    "trim_offsets": true,
    "use_regex": true
  },
  "decoder": null,
  "model": {
    "type": "BPE",
    "dropout": null,
    "unk_token": "<unk>",
    "continuing_subword_prefix": "",
    "end_of_word_suffix": "",
    "fuse_unk": false,
    "byte_fallback": false,
    "ignore_merges": false,
    "vocab": {
      "<pad>": 0,
      "<unk>": 1,
      "<s>": 2,
      "</s>": 3,
      "<CODE>": 4,
      "</CODE>": 5,
      "<LOG>": 6,
      "</LOG>": 7,
      "<PACKET>": 8,
      "</PACKET>": 9,
      "<ERROR>": 10,
      "</ERROR>": 11,
      "<CONNECT>": 12,
      "<BIND>": 13,
      "<LISTEN>": 14,
      "<ACCEPT>": 15,
      "<HANDSHAKE>": 16,
      "<NEGOTIATE>": 17,
      "<SYN>": 18,
      "<ACK>": 19,
      "<FIN>": 20,
      "<SEND>": 21,
      "<RECV>": 22,
      "<TRANSMIT>": 23,
      "<RECEIVE>": 24,
      "<REQUEST>": 25,
      "<RESPONSE>": 26,
      "<GET>": 27,
      "<POST>": 28,
      "<PUT>": 29,
      "<DELETE>": 30,
      "<POLL>": 31,
      "<PING>": 32,
      "<CLOSE>": 33,
      "<TIMEOUT>": 34,
      "<SUCCESS>": 35,
      "<FAILURE>": 36,
      "<PENDING>": 37,
      "<RETRY>": 38,
      "<DEADLINE_EXCEEDED>": 39,
      "<OK>": 40,
      "<CONNECTION_REFUSED>": 41,
      "<PROTOCOL_ERROR>": 42,
      "<UNAUTHORIZED>": 43,
      "<FORBIDDEN>": 44,
      "<NOT_FOUND>": 45,
      "<SERVER_ERROR>": 46,
      "<HTTP/1.1>": 47,
      "<HTTP/2>": 48,
      "<TCP>": 49,
      "<UDP>": 50,
      "<ICMP>": 51,
      "<ARP>": 52,
      "<QUIC>": 53,
      "<WEBSOCKET>": 54,
      "<gRPC>": 55,
      "<MQTT>": 56,
      "<COAP>": 57,
      "<FTP>": 58,
      "<SSH>": 59,
      "<BGP>": 60,
      "<OSPF>": 61,
      "<DNS>": 62,
      "<DHCP>": 63,
      "<TLS>": 64,
      "<SSL>": 65,
      "<IPsec>": 66,
      "<RTP>": 67,
      "<SIP>": 68,
      "<JSON>": 69,
      "<XML>": 70,
      "<YAML>": 71,
      "<PROTOBUF>": 72,
      "<AVRO>": 73,
      "<CBOR>": 74,
      "<GZIP>": 75,
      "<ZLIB>": 76,
      "<SERVER>": 77,
      "<CLIENT>": 78,
      "<PORT>": 79,
      "<ADDRESS>": 80,
      "<IP>": 81,
      "<MAC>": 82,
      "<HOSTNAME>": 83,
      "<ROUTER>": 84,
      "<SWITCH>": 85,
      "<GATEWAY>": 86,
      "<FIREWALL>": 87,
      "<LOAD_BALANCER>": 88,
      "<VPN>": 89,
      "<DNS_SERVER>": 90,
      "<NAT_DEVICE>": 91,
      "<PAYLOAD>": 92,
      "<HEADER>": 93,
      "<PACKET_HEADER>": 94,
      "<PACKET_BODY>": 95,
      "<SOURCE_IP>": 96,
      "<DESTINATION_IP>": 97,
      "<SOURCE_PORT>": 98,
      "<DESTINATION_PORT>": 99,
      "<PROTOCOL_TYPE>": 100,
      "<PACKET_SIZE>": 101,
      "<PAYLOAD_LENGTH>": 102,
      "<TIMESTAMP>": 103,
      "<LEVEL>": 104,
      "<MESSAGE>": 105,
      "<TRACE_ID>": 106,
      "<SESSION_ID>": 107,
      "<EVENT_ID>": 108,
      "<SYSLOG>": 109,
      "<JSON_LOG>": 110,
      "!": 111,
      "\"": 112,
      "#": 113,
      "$": 114,
      "%": 115,
      "&": 116,
      "'": 117,
      "(": 118,
      ")": 119,
      "*": 120,
      "+": 121,
      ",": 122,
      "-": 123,
      ".": 124,
      "/": 125,
      "0": 126,
      "1": 127,
      "2": 128,
      "3": 129,
      "4": 130,
      "5": 131,
      "6": 132,
      "7": 133,
      "8": 134,
      "9": 135,
      ":": 136,
      ";": 137,
      "<": 138,
      "=": 139,
      ">": 140,
      "?": 141,
      "A": 142,
      "B": 143,
      "C": 144,
      "D": 145,
      "E": 146,
      "F": 147,
      "G": 148,
      "H": 149,
      "I": 150,
      "J": 151,
      "K": 152,
      "L": 153,
      "M": 154,
      "N": 155,
      "O": 156,
      "P": 157,
      "Q": 158,
      "R": 159,
      "S": 160,
      "T": 161,
      "U": 162,
      "V": 163,
      "W": 164,
      "X": 165,
      "Y": 166,
      "Z": 167,
      "[": 168,
      "\\": 169,
      "]": 170,
      "_": 171,
      "`": 172,
      "a": 173,
      "b": 174,
      "c": 175,
      "d": 176,
      "e": 177,
      "f": 178,
      "g": 179,
      "h": 180,
      "i": 181,
      "j": 182,
      "k": 183,
      "l": 184,
      "m": 185,
      "n": 186,
      "o": 187,
      "p": 188,
      "q": 189,
      "r": 190,
      "s": 191,
      "t": 192,
      "u": 193,
      "v": 194,
      "w": 195,
      "x": 196,
      "y": 197,
      "z": 198,
      "{": 199,
      "|": 200,
      "}": 201,
      "Ċ": 202,
      "Ġ": 203,
      "ĠĠ": 204,
      "ĠĠĠĠ": 205,
      "Ġ\"": 206,
      "\":": 207,
      "ĠĠĠĠĠ": 208,
      "ĠĠĠĠĠĠĠĠĠ": 209,
      "ĠĠĠ": 210,
      "ti": 211,
      "\",": 212,
      "te": 213,
      "on": 214,
      "re": 215,
      "ĠĠĠĠĠĠĠ": 216,
      "Ġ{": 217,
      "tion": 218,
      "Ġ}": 219,
      "ce": 220,
      "pe": 221,
      "in": 222,
      "ou": 223,
      "ction": 224,
      "me": 225,
      "th": 226,
      "ste": 227,
      "res": 228,
      "our": 229,
      "step": 230,
      "ource": 231,
      "Ġ},": 232,
      "le": 233,
      "or": 234,
      "Ġa": 235,
      "ex": 236,
      "ns": 237,
      "nd": 238,
      "ted": 239,
      "expe": 240,
      "ra": 241,
      "action": 242,
      "cted": 243,
      "time": 244,
      "resource": 245,
      "expected": 246,
      "od": 247,
      "po": 248,
      "Ġs": 249,
      "st": 250,
      "Ġf": 251,
      "ta": 252,
      "ing": 253,
      "yn": 254,
      "ode": 255,
      "ut": 256,
      "Ġc": 257,
      "et": 258,
      "se": 259,
      "put": 260,
      "ve": 261,
      "Re": 262,
      "the": 263,
      "ile": 264,
      "CP": 265,
      "tic": 266,
      "ynthe": 267,
      "ynthetic": 268,
      "al": 269,
      "ha": 270,
      "Ġand": 271,
      "Ġre": 272,
      "is": 273,
      "CPU": 274,
      "it": 275,
      "om": 276,
      "py": 277,
      "ze": 278,
      "ec": 279,
      "mp": 280,
      "Ġ3": 281,
      "en": 282,
      "ru": 283,
      "Ġfor": 284,
      "da": 285,
      "cra": 286,
      "Ġth": 287,
      "ni": 288,
      "Ġcode": 289,
      "qu": 290,
      "ub": 291,
      ":\\": 292,
      "data": 293,
      "nal": 294,
      "yze": 295,
      "Ġ[": 296,
      "stru": 297,
      "nalyze": 298,
      "ck": 299,
      "gi": 300,
      "end": 301,
      "ope": 302,
      "ration": 303,
      "que": 304,
      "scra": 305,
      "thub": 306,
      "github": 307,
      "Ġthis": 308,
      "operation": 309,
      "lo": 310,
      "out": 311,
      "Ġ]": 312,
      "cket": 313,
      "ling": 314,
      "pos": 315,
      "Code": 316,
      "Dec": 317,
      "Ġ1": 318,
      "input": 319,
      "instru": 320,
      "steps": 321,
      "pose": 322,
      "ompose": 323,
      "output": 324,
      "Decompose": 325,
      "instruction": 326,
      "ory": 327,
      "\\\"": 328,
      "nF": 329,
      "source": 330,
      "posit": 331,
      "nCode": 332,
      "pling": 333,
      "Ġres": 334,
      "meta": 335,
      "Ġanalyze": 336,
      "Reposit": 337,
      "scrapling": 338,
      "nFile": 339,
      "metadata": 340,
      "Repository": 341,
      "pa": 342,
      "Send": 343,
      "mple": 344,
      "wor": 345,
      "quest": 346,
      "work": 347,
      "Ġ2": 348,
      "Ex": 349,
      "ke": 350,
      "odu": 351,
      "ample": 352,
      "ppe": 353,
      "Ġfile": 354,
      "Example": 355,
      "modu": 356,
      "etwork": 357,
      "module": 358,
      "ive": 359,
      "synthetic": 360,
      "ĠExample": 361,
      "Ġsynthetic": 362,
      "Ġsni": 363,
      "Ġrepo": 364,
      "ppet": 365,
      "Ġsnippet": 366,
      "er": 367,
      "li": 368,
      "sha": 369,
      "ndsha": 370,
      "ndshake": 371,
      "Ġt": 372,
      "ver": 373,
      "ro": 374,
      "up": 375,
      "tp": 376,
      "ttp": 377,
      "Ġpa": 378,
      "ĠS": 379,
      "ceive": 380,
      "wa": 381,
      "etworking": 382,
      "ĠH": 383,
      "syn": 384,
      "sync": 385,
      "NS": 386,
      "Ġcon": 387,
      "pon": 388,
      "handshake": 389,
      "Ġrespon": 390,
      "Ġresponse": 391,
      "==": 392,
      "http": 393,
      "ĠT": 394,
      "--": 395,
      "DNS": 396,
      "ok": 397,
      "ocket": 398,
      "ĠA": 399,
      "Receive": 400,
      "okup": 401,
      "ate": 402,
      "ne": 403,
      "Ġo": 404,
      "quests": 405,
      "way": 406,
      "ĠC": 407,
      "ĠN": 408,
      "Ġpacket": 409,
      "Ġto": 410,
      "Pro": 411,
      "Ġ4": 412,
      "Ġb": 413,
      "ol": 414,
      "gra": 415,
      "ur": 416,
      "Ġrequest": 417,
      "ent": 418,
      "Ġn": 419,
      "lient": 420,
      "ĠNetworking": 421,
      "Ġd": 422,
      "ĠDNS": 423,
      "Ġconne": 424,
      "Ġconnection": 425,
      "mm": 426,
      "gramm": 427,
      "gramming": 428,
      "ri": 429,
      "Ġasync": 430,
      "ene": 431,
      "enera": 432,
      "ss": 433,
      "..": 434,
      "eneral": 435,
      "pi": 436,
      "ort": 437,
      "el": 438,
      "CK": 439,
      "TP": 440,
      "TTP": 441,
      "nt": 442,
      "YN": 443,
      "ad": 444,
      "Ġin": 445,
      "Ġhandshake": 446,
      "ĠSYN": 447,
      "fi": 448,
      "ĠL": 449,
      "ĠClient": 450,
      "ĠRe": 451,
      "Ġsocket": 452,
      "ĠHTTP": 453,
      "Ġof": 454,
      "Ġresol": 455,
      "ĠTCP": 456,
      ".\\": 457,
      "ge": 458,
      "he": 459,
      "ookup": 460,
      "cer": 461,
      "ĠLookup": 462,
      "Ġresolver": 463,
      "=\\\"": 464,
      "Ġ5": 465,
      "lookup": 466,
      "fic": 467,
      ")\\": 468,
      ":/": 469,
      "ĠPro": 470,
      "Ġcer": 471,
      "====": 472,
      "https": 473,
      "ĠRequests": 474,
      "ĠProgramming": 475,
      "ar": 476,
      "pro": 477,
      "tific": 478,
      "mport": 479,
      "low": 480,
      "erver": 481,
      "lib": 482,
      "://": 483,
      "Ġcertific": 484,
      "Ġcertificate": 485,
      "Cre": 486,
      "Hel": 487,
      "LS": 488,
      "andshake": 489,
      "networking": 490,
      "ĠHandshake": 491,
      "Create": 492,
      "Hello": 493,
      "Ġi": 494,
      "cess": 495,
      "20": 496,
      "General": 497,
      "ct": 498,
      "Ġg": 499,
      "Ġ\\\"": 500,
      "ity": 501,
      "ers": 502,
      "----": 503,
      "ion": 504,
      "ma": 505,
      "Ġw": 506,
      "thon": 507,
      "Ġnetwork": 508,
      "30": 509,
      "ul": 510,
      "ĠP": 511,
      "Ġe": 512,
      "test": 513,
      "Process": 514,
      "32": 515,
      "46": 516,
      "ON": 517,
      "cce": 518,
      "Ġex": 519,
      "Ġthe": 520,
      "ccep": 521,
      ">>": 522,
      "RE": 523,
      "ab": 524,
      "com": 525,
      "if": 526,
      "ry": 527,
      "Ġ=": 528,
      "ter": 529,
      "18": 530,
      "19": 531,
      ">\\": 532,
      "llib": 533,
      "ution": 534,
      "ys": 535,
      "int": 536,
      "urllib": 537,
      "ĠClients": 538,
      "**": 539,
      "25": 540,
      "dd": 541,
      "ls": 542,
      "rom": 543,
      "inal": 544,
      "ress": 545,
      "ACK": 546,
      "TCP": 547,
      "\\\",": 548,
      "sive": 549,
      "vi": 550,
      "requests": 551,
      "ind": 552,
      "Ġfinal": 553,
      "query": 554,
      "ĠACK": 555,
      "...": 556,
      "ify": 557,
      "24": 558,
      "38": 559,
      "cp": 560,
      "iste": 561,
      "Ġp": 562,
      "Ġdata": 563,
      "Ġhe": 564,
      "Ġadd": 565,
      "Ġtcp": 566,
      "Ġbod": 567,
      "rib": 568,
      "37": 569,
      "Analyze": 570,
      "Accep": 571,
      "Bind": 572,
      "De": 573,
      "Liste": 574,
      "Socket": 575,
      "cur": 576,
      "de": 577,
      "ize": 578,
      "ython": 579,
      "Ġhttp": 580,
      "Ġquery": 581,
      "receive": 582,
      "ine": 583,
      "Ġflow": 584,
      "ecution": 585,
      "Ġno": 586,
      "aders": 587,
      "programming": 588,
      "Ġimport": 589,
      "Ġgeneral": 590,
      "Ġexecution": 591,
      "Ġaddress": 592,
      "Ġbody": 593,
      "Accept": 594,
      "Listen": 595,
      "28": 596,
      "29": 597,
      "35": 598,
      "Async": 599,
      "at": 600,
      "il": 601,
      "lis": 602,
      "oc": 603,
      "op": 604,
      "Ġor": 605,
      "Ġlookup": 606,
      "Recur": 607,
      "lish": 608,
      "Recursive": 609,
      "11": 610,
      "27": 611,
      "36": 612,
      "ng": 613,
      "un": 614,
      "ment": 615,
      "load": 616,
      "pare": 617,
      "Ġdns": 618,
      "\\\",\\": 619,
      "...\",": 620,
      ",\\": 621,
      "</": 622,
      "Est": 623,
      "Http": 624,
      "PI": 625,
      "Pre": 626,
      "Par": 627,
      "TLS": 628,
      "Ver": 629,
      "io": 630,
      "trib": 631,
      "Ġis": 632,
      "Ġend": 633,
      "point": 634,
      "Ġserver": 635,
      "Ġsys": 636,
      "upp": 637,
      "ĠServer": 638,
      "ĠTLS": 639,
      "ĠClientHello": 640,
      "ablish": 641,
      "Ġheaders": 642,
      "Establish": 643,
      "Prepare": 644,
      "Parse": 645,
      "Verify": 646,
      "ĠServerHello": 647,
      "##": 648,
      "17": 649,
      "26": 650,
      "44": 651,
      "47": 652,
      "im": 653,
      "md": 654,
      "Ġ<": 655,
      "Ġh": 656,
      "Ġu": 657,
      "alize": 658,
      "Ġtls": 659,
      "ĠSocket": 660,
      "ĠAPI": 661,
      "ult": 662,
      "ĠPython": 663,
      "tests": 664,
      "img": 665,
      "(\\\"": 666,
      "Con": 667,
      "JS": 668,
      "ase": 669,
      "from": 670,
      "ist": 671,
      "ly": 672,
      "nfrom": 673,
      "Ġ(": 674,
      "Ġlo": 675,
      "Ġma": 676,
      "ting": 677,
      "tions": 678,
      "vent": 679,
      "scrapy": 680,
      "Ġbe": 681,
      "Ġde": 682,
      "========": 683,
      "ters": 684,
      "JSON": 685,
      "15": 686,
      "34": 687,
      "Awa": 688,
      "Api": 689,
      "Ini": 690,
      "cl": 691,
      "client": 692,
      "ed": 693,
      "fine": 694,
      "na": 695,
      "rc": 696,
      "ron": 697,
      "sk": 698,
      "sion": 699,
      "yload": 700,
      "Ġ#": 701,
      "Ġ`": 702,
      "Ġexpe": 703,
      "Ġta": 704,
      "ĠJSON": 705,
      "tialize": 706,
      "meters": 707,
      "Ġapi": 708,
      "rameters": 709,
      "enc": 710,
      "ence": 711,
      "nimport": 712,
      "struct": 713,
      "Ġresult": 714,
      "Ġpayload": 715,
      "Ġparameters": 716,
      "ĠAsync": 717,
      "Ġover": 718,
      "rience": 719,
      "Ġevent": 720,
      ">>>": 721,
      "Define": 722,
      "Ġendpoint": 723,
      "Construct": 724,
      "Ġloop": 725,
      "Await": 726,
      "Initialize": 727,
      "clients": 728,
      "Ġexperience": 729,
      "Ġtask": 730,
      "10": 731,
      "14": 732,
      "39": 733,
      "40": 734,
      "45": 735,
      "DE": 736,
      "TE": 737,
      "``": 738,
      "ca": 739,
      "der": 740,
      "mun": 741,
      "ĠO": 742,
      "Ġm": 743,
      "ĠGeneral": 744,
      "ref": 745,
      "Ġal": 746,
      "Ġsupp": 747,
      "tation": 748,
      "version": 749,
      "ĠHttp": 750,
      "Ġcontrib": 751,
      "ĠApi": 752,
      "munity": 753,
      "ds": 754,
      "ove": 755,
      "us": 756,
      "ĠF": 757,
      "ĠI": 758,
      "Ġr": 759,
      "Ġy": 760,
      "Ġour": 761,
      "Ġle": 762,
      "Ġha": 763,
      "org": 764,
      "Ġset": 765,
      "Ġcom": 766,
      "Ġthat": 767,
      "httpx": 768,
      "Ġincl": 769,
      "--------": 770,
      "Ġhref": 771,
      "Ġsupport": 772,
      "Ġinclu": 773,
      "13": 774,
      "16": 775,
      "49": 776,
      "](": 777,
      "dge": 778,
      "ht": 779,
      "ll": 780,
      "pre": 781,
      "tr": 782,
      "ty": 783,
      "Ġ/": 784,
      "Ġ|": 785,
      "Ġpe": 786,
      "ledge": 787,
      "Ġsrc": 788,
      "python": 789,
      "envi": 790,
      "\\\">\\": 791,
      "Ġby": 792,
      "ocs": 793,
      "Ġuse": 794,
      "encode": 795,
      "Ġalt": 796,
      "environ": 797,
      "12": 798,
      "71": 799,
      "><": 800,
      "></": 801,
      "HE": 802,
      "PY": 803,
      "SE": 804,
      "TH": 805,
      "UR": 806,
      "ath": 807,
      "con": 808,
      "den": 809,
      "es": 810,
      "gn": 811,
      "ow": 812,
      "ool": 813,
      "rs": 814,
      "Ġit": 815,
      "tive": 816,
      "men": 817,
      "Ġan": 818,
      "Ġsex": 819,
      "Ġfrom": 820,
      "utor": 821,
      "Ġcha": 822,
      "rue": 823,
      "crapy": 824,
      "nif": 825,
      "\\\")": 826,
      "\\\"><": 827,
      "ĠThe": 828,
      "Ġos": 829,
      "ility": 830,
      "Ġsetup": 831,
      "preca": 832,
      "denti": 833,
      "23": 834,
      "97": 835,
      "HTTP": 836,
      "ME": 837,
      "NT": 838,
      "]\\": 839,
      "__": 840,
      "ble": 841,
      "ch": 842,
      "docs": 843,
      "file": 844,
      "ful": 845,
      "ght": 846,
      "mb": 847,
      "nge": 848,
      "su": 849,
      "sv": 850,
      "ww": 851,
      "wle": 852,
      "ĠG": 853,
      "Ġon": 854,
      "Ġme": 855,
      "Ġra": 856,
      "Ġoperation": 857,
      "Ġup": 858,
      "Ġpro": 859,
      "Ġtests": 860,
      "Ġversion": 861,
      "tes": 862,
      "lease": 863,
      "Ġstr": 864,
      "Ġscrapy": 865,
      "Ġfol": 866,
      "tain": 867,
      "ther": 868,
      "Ġrequests": 869,
      "qui": 870,
      "war": 871,
      "ĠCon": 872,
      "lowing": 873,
      "Ġwi": 874,
      "ĠOur": 875,
      "Ġcontribu": 876,
      "Ġinclude": 877,
      "PYTH": 878,
      "mentation": 879,
      "dentity": 880,
      "svg": 881,
      "wler": 882,
      "Ġfollowing": 883,
      "PYTHON": 884,
      "(\\": 885,
      "00": 886,
      "225": 887,
      "48": 888,
      "55": 889,
      "59": 890,
      "77": 891,
      "95": 892,
      "IO": 893,
      "IT": 894,
      "NG": 895,
      "PS": 896,
      "SY": 897,
      "STE": 898,
      "USE": 899,
      "We": 900,
      "an": 901,
      "age": 902,
      "bad": 903,
      "cor": 904,
      "du": 905,
      "dist": 906,
      "fo": 907,
      "flow": 908,
      "get": 909,
      "hi": 910,
      "jec": 911,
      "nI": 912,
      "nter": 913,
      "nWe": 914,
      "si": 915,
      "ure": 916,
      "ual": 917,
      "vis": 918,
      "ĠB": 919,
      "ĠD": 920,
      "ĠV": 921,
      "Ġli": 922,
      "Ġne": 923,
      "Ġenviron": 924,
      "one": 925,
      "center": 926,
      "Ġas": 927,
      "Ġali": 928,
      "ran": 929,
      "Ġsh": 930,
      "stal": 931,
      "Ġfe": 932,
      "Ġcase": 933,
      "ser": 934,
      "pypi": 935,
      "workflow": 936,
      "verify": 937,
      "ĠSta": 938,
      "---": 939,
      "Ġbool": 940,
      "Ġdis": 941,
      "rip": 942,
      "right": 943,
      "Ġinte": 944,
      "Ġwil": 945,
      "ccepting": 946,
      "community": 947,
      "**\\": 948,
      "Ġpr": 949,
      "Ġpledge": 950,
      "DEPS": 951,
      "```": 952,
      "Ġyour": 953,
      "Ġcommunity": 954,
      "Ġ/></": 955,
      "Ġwith": 956,
      "SYSTE": 957,
      "badge": 958,
      "cord": 959,
      "ject": 960,
      "Ġenvironment": 961,
      "Ġalign": 962,
      "Ġwill": 963,
      "SYSTEM": 964,
      "()\\": 965,
      "146": 966,
      "22": 967,
      "237": 968,
      "330": 969,
      "53": 970,
      "56": 971,
      "67": 972,
      "68": 973,
      "74": 974,
      "79": 975,
      "81": 976,
      "86": 977,
      "90": 978,
      "91": 979,
      "92": 980,
      ">=": 981,
      "AD": 982,
      "AR": 983,
      "Cra": 984,
      "EX": 985,
      "IE": 986,
      "ING": 987,
      "OF": 988,
      "PO": 989,
      "UT": 990,
      "\\\":": 991,
      "ack": 992,
      "bility": 993,
      "ci": 994,
      "crip": 995,
      "ess": 996,
      "gu": 997,
      "id": 998,
      "ipa": 999,
      "ible": 1000,
      "la": 1001,
      "ml": 1002,
      "nT": 1003,
      "no": 1004,
      "nRe": 1005,
      "nExample": 1006,
      "ncommunity": 1007,
      "opy": 1008,
      "ock": 1009,
      "rtic": 1010,
      "sing": 1011,
      "sys": 1012,
      "shi": 1013,
      "tra": 1014,
      "tus": 1015,
      "uti": 1016,
      "ust": 1017,
      "Ġ*": 1018,
      "Ġ\\": 1019,
      "Ġpy": 1020,
      "Ġope": 1021,
      "Ġtest": 1022,
      "ĠRE": 1023,
      "onal": 1024,
      "pend": 1025,
      "info": 1026,
      "thlib": 1027,
      "orted": 1028,
      "Ġab": 1029,
      "Ġar": 1030,
      "Ġare": 1031,
      "ndar": 1032,
      "actions": 1033,
      "Ġsta": 1034,
      "stder": 1035,
      "Ġclient": 1036,
      "vel": 1037,
      "alse": 1038,
      "havi": 1039,
      "Ġrep": 1040,
      "Ġrequi": 1041,
      "iscord": 1042,
      "entation": 1043,
      "mplementation": 1044,
      "Ġpartic": 1045,
      "Ġpathlib": 1046,
      "ĠAN": 1047,
      "Ġother": 1048,
      "ĠCO": 1049,
      "ĠNO": 1050,
      "Ġtowar": 1051,
      "Ġbut": 1052,
      "elcom": 1053,
      "elds": 1054,
      "ersion": 1055,
      "Ġwelcom": 1056,
      "199": 1057,
      "255": 1058,
      "ribution": 1059,
      "Ġnot": 1060,
      "Ġnox": 1061,
      "AsyncCra": 1062,
      "Ġori": 1063,
      "ments": 1064,
      "Ġissu": 1065,
      "473": 1066,
      "Ġmay": 1067,
      "Ġbehavi": 1068,
      "Ġdepreca": 1069,
      "================": 1070,
      "Ġcontributor": 1071,
      "Ġ|\\": 1072,
      "Ġpers": 1073,
      "Ġits": 1074,
      "Ġsexual": 1075,
      "Ġstring": 1076,
      "visible": 1077,
      "ĠVersion": 1078,
      "stall": 1079,
      "---\\": 1080,
      "Ġprint": 1081,
      "ADME": 1082,
      "ession": 1083,
      "nExamples": 1084,
      "opyright": 1085,
      "shields": 1086,
      "Ġopen": 1087,
      "stderr": 1088,
      "Ġparticipa": 1089,
      "Ġwelcoming": 1090,
      "AsyncCrawler": 1091,
      "Ġbehavior": 1092,
      "Ġcontributors": 1093,
      "Ġpersonal": 1094,
      "'\\": 1095,
      "('": 1096,
      ").": 1097,
      "):\\": 1098,
      ").\\": 1099,
      ",<": 1100,
      "127": 1101,
      "21": 1102,
      "31": 1103,
      "319": 1104,
      "418": 1105,
      "52": 1106,
      "54": 1107,
      "61": 1108,
      "62": 1109,
      "63": 1110,
      "65": 1111,
      "70": 1112,
      "72": 1113,
      "73": 1114,
      "75": 1115,
      "78": 1116,
      "83": 1117,
      "87": 1118,
      "89": 1119,
      "93": 1120,
      "94": 1121,
      "96": 1122,
      "98": 1123,
      "99": 1124,
      "ANT": 1125,
      "CT": 1126,
      "CON": 1127,
      "DU": 1128,
      "IS": 1129,
      "IRE": 1130,
      "OR": 1131,
      "QU": 1132,
      "RI": 1133,
      "Run": 1134,
      "SL": 1135,
      "SS": 1136,
      "Synthetic": 1137,
      "True": 1138,
      "au": 1139,
      "ated": 1140,
      "aio": 1141,
      "aran": 1142,
      "back": 1143,
      "city": 1144,
      "ctive": 1145,
      "di": 1146,
      "dle": 1147,
      "discord": 1148,
      "ee": 1149,
      "ew": 1150,
      "eing": 1151,
      "fre": 1152,
      "fer": 1153,
      "gs": 1154,
      "gar": 1155,
      "ite": 1156,
      "ise": 1157,
      "ils": 1158,
      "ies": 1159,
      "itive": 1160,
      "js": 1161,
      "line": 1162,
      "mon": 1163,
      "ning": 1164,
      "ner": 1165,
      "nload": 1166,
      "ore": 1167,
      "pin": 1168,
      "press": 1169,
      "ts": 1170,
      "ving": 1171,
      "xt": 1172,
      "ype": 1173,
      "yone": 1174,
      "}.": 1175,
      "Ġ0": 1176,
      "Ġk": 1177,
      "Ġru": 1178,
      "Ġpos": 1179,
      "ĠCode": 1180,
      "Ġhttps": 1181,
      "Ġurllib": 1182,
      "Ġ**": 1183,
      "Ġvi": 1184,
      "Ġ...": 1185,
      "ĠDe": 1186,
      "Ġencode": 1187,
      "text": 1188,
      "red": 1189,
      "tional": 1190,
      "ceful": 1191,
      "pect": 1192,
      "mer": 1193,
      "thni": 1194,
      "ster": 1195,
      "Ġappe": 1196,
      "Ġage": 1197,
      "Ġaccepting": 1198,
      "exit": 1199,
      "nde": 1200,
      "rass": 1201,
      "Ġsi": 1202,
      "Ġscrip": 1203,
      "Ġsession": 1204,
      "str": 1205,
      "tails": 1206,
      "Ġcre": 1207,
      "Ġcopyright": 1208,
      "hange": 1209,
      "Ġret": 1210,
      "Ġreli": 1211,
      "Ġregar": 1212,
      "mpath": 1213,
      "Ġform": 1214,
      "Ġtho": 1215,
      "nidentity": 1216,
      "Ġ[\\": 1217,
      "structive": 1218,
      "gion": 1219,
      "ender": 1220,
      "log": 1221,
      "\\\"\\\"": 1222,
      "\\\")\\": 1223,
      "Ġrespect": 1224,
      "Ġ20": 1225,
      "veryone": 1226,
      "ĠSSL": 1227,
      "NSIO": 1228,
      "Ġcontain": 1229,
      "Ġcondi": 1230,
      "Ġconstructive": 1231,
      "ĠTrue": 1232,
      "ĠCove": 1233,
      "older": 1234,
      "Ġna": 1235,
      "Ġdif": 1236,
      "Ġdoc": 1237,
      "project": 1238,
      "Ġidentity": 1239,
      "206": 1240,
      "Ġgender": 1241,
      "main": 1242,
      "304": 1243,
      "309": 1244,
      "ĠPledge": 1245,
      "ĠPath": 1246,
      "Ġethni": 1247,
      "Ġempath": 1248,
      "Ġeveryone": 1249,
      "322": 1250,
      "460": 1251,
      "461": 1252,
      "Ġexpress": 1253,
      "RENT": 1254,
      "ability": 1255,
      "185": 1256,
      "vide": 1257,
      "380": 1258,
      "Depreca": 1259,
      "Ġhttpx": 1260,
      "Ġnow": 1261,
      "296": 1262,
      "ature": 1263,
      "113": 1264,
      "363": 1265,
      "tributor": 1266,
      "points": 1267,
      "upported": 1268,
      "179": 1269,
      "443": 1270,
      "448": 1271,
      "Ġmake": 1272,
      "Ġdetails": 1273,
      "151": 1274,
      "name": 1275,
      "nant": 1276,
      "rong": 1277,
      "Ġexperiences": 1278,
      "106": 1279,
      "TENSIO": 1280,
      "cation": 1281,
      "ĠIS": 1282,
      "Ġyou": 1283,
      "Ġlevel": 1284,
      "Ġhas": 1285,
      "Ġharass": 1286,
      "----------------": 1287,
      "Ġinclusive": 1288,
      "llhttp": 1289,
      "HERE": 1290,
      "URRENT": 1291,
      "ownload": 1292,
      "Ġchange": 1293,
      "\\\"))\\": 1294,
      "HTTPX": 1295,
      "files": 1296,
      "mber": 1297,
      "mbers": 1298,
      "www": 1299,
      "Ġmembers": 1300,
      "Ġrace": 1301,
      "Ġraise": 1302,
      "Ġprovide": 1303,
      "ĠCondu": 1304,
      "ĠContributor": 1305,
      "Ġcontributes": 1306,
      "distribution": 1307,
      "ĠBeing": 1308,
      "ĠDro": 1309,
      "Ġlist": 1310,
      "Ġneed": 1311,
      "Ġfeature": 1312,
      "Ġcases": 1313,
      "server": 1314,
      "workflows": 1315,
      "ĠStandar": 1316,
      "Ġdisability": 1317,
      "EXTENSIO": 1318,
      "gument": 1319,
      "nThe": 1320,
      "utils": 1321,
      "ĠREADME": 1322,
      "Ġargument": 1323,
      "ĠAND": 1324,
      "ĠCODE": 1325,
      "Ġorientation": 1326,
      "Ġissue": 1327,
      "Ġdeprecated": 1328,
      "Ġparticipation": 1329,
      "CONDU": 1330,
      "IRED": 1331,
      "QUIRED": 1332,
      "aiohttp": 1333,
      "arance": 1334,
      "dless": 1335,
      "ewpoints": 1336,
      "free": 1337,
      "fering": 1338,
      "json": 1339,
      "Ġpositive": 1340,
      "Ġviewpoints": 1341,
      "tionality": 1342,
      "cefully": 1343,
      "Ġappearance": 1344,
      "Ġscripts": 1345,
      "hangelog": 1346,
      "Ġreligion": 1347,
      "Ġregardless": 1348,
      "Ġrespectful": 1349,
      "Ġcontains": 1350,
      "Ġconditions": 1351,
      "ĠCovenant": 1352,
      "Ġdiffering": 1353,
      "Ġdocu": 1354,
      "Ġethnicity": 1355,
      "Ġempathy": 1356,
      "Ġexpression": 1357,
      "Deprecations": 1358,
      "Ġharassment": 1359,
      "ĠConduct": 1360,
      "ĠStandards": 1361,
      "EXTENSIONS": 1362,
      "CONDUCT": 1363,
      "![": 1364,
      "',": 1365,
      "'t": 1366,
      "*.": 1367,
      "/_": 1368,
      "/).\\": 1369,
      "08": 1370,
      "124": 1371,
      "128": 1372,
      "126": 1373,
      "224": 1374,
      "238": 1375,
      "228": 1376,
      "235": 1377,
      "33": 1378,
      "338": 1379,
      "334": 1380,
      "41": 1381,
      "42": 1382,
      "43": 1383,
      "430": 1384,
      "432": 1385,
      "446": 1386,
      "439": 1387,
      "423": 1388,
      "422": 1389,
      "50": 1390,
      "51": 1391,
      "57": 1392,
      "58": 1393,
      "60": 1394,
      "64": 1395,
      "66": 1396,
      "69": 1397,
      "76": 1398,
      "80": 1399,
      "82": 1400,
      "84": 1401,
      "85": 1402,
      "88": 1403,
      "::": 1404,
      "AB": 1405,
      "Age": 1406,
      "All": 1407,
      "AIO": 1408,
      "Bu": 1409,
      "BUT": 1410,
      "CI": 1411,
      "CL": 1412,
      "CHE": 1413,
      "False": 1414,
      "GIT": 1415,
      "Hub": 1416,
      "IC": 1417,
      "LE": 1418,
      "LIE": 1419,
      "MP": 1420,
      "NO": 1421,
      "PE": 1422,
      "Py": 1423,
      "Please": 1424,
      "RANT": 1425,
      "Sub": 1426,
      "Te": 1427,
      "TRI": 1428,
      "WAR": 1429,
      "YPE": 1430,
      "ai": 1431,
      "atic": 1432,
      "ake": 1433,
      "act": 1434,
      "ault": 1435,
      "bin": 1436,
      "bran": 1437,
      "co": 1438,
      "cy": 1439,
      "code": 1440,
      "col": 1441,
      "cter": 1442,
      "ding": 1443,
      "em": 1444,
      "ected": 1445,
      "eve": 1446,
      "ered": 1447,
      "ff": 1448,
      "for": 1449,
      "fut": 1450,
      "folder": 1451,
      "fault": 1452,
      "ga": 1453,
      "gcon": 1454,
      "his": 1455,
      "hen": 1456,
      "ic": 1457,
      "ix": 1458,
      "implementation": 1459,
      "iving": 1460,
      "kgcon": 1461,
      "mis": 1462,
      "mock": 1463,
      "nC": 1464,
      "ntic": 1465,
      "nna": 1466,
      "nno": 1467,
      "nAll": 1468,
      "nPlease": 1469,
      "oth": 1470,
      "ost": 1471,
      "ps": 1472,
      "ror": 1473,
      "rse": 1474,
      "sy": 1475,
      "tool": 1476,
      "use": 1477,
      "uage": 1478,
      "user": 1479,
      "uite": 1480,
      "xAge": 1481,
      "yml": 1482,
      "zing": 1483,
      "Ġ'": 1484,
      "Ġ9": 1485,
      "Ġ:": 1486,
      "Ġway": 1487,
      "Ġgra": 1488,
      "Ġpi": 1489,
      "Ġ)\\": 1490,
      "Ġlib": 1491,
      "Ġun": 1492,
      "Ġ...\",": 1493,
      "ĠUR": 1494,
      "Ġ__": 1495,
      "ĠUSE": 1496,
      "Ġla": 1497,
      "Ġvisible": 1498,
      "Ġllhttp": 1499,
      "ĠWAR": 1500,
      "ĠĠĠĠĠĠĠĠĠĠĠ": 1501,
      "tice": 1502,
      "ten": 1503,
      "tent": 1504,
      "onom": 1505,
      "rent": 1506,
      "requi": 1507,
      "Ġ{}.": 1508,
      "pepy": 1509,
      "inar": 1510,
      "install": 1511,
      "ous": 1512,
      "thy": 1513,
      "stem": 1514,
      "lex": 1515,
      "ories": 1516,
      "Ġac": 1517,
      "Ġat": 1518,
      "Ġav": 1519,
      "Ġapo": 1520,
      "Ġact": 1521,
      "Ġaio": 1522,
      "Ġaff": 1523,
      "ext": 1524,
      "exist": 1525,
      "extra": 1526,
      "nsta": 1527,
      "nsize": 1528,
      "ndive": 1529,
      "nder": 1530,
      "raw": 1531,
      "rage": 1532,
      "ract": 1533,
      "rary": 1534,
      "rating": 1535,
      "rability": 1536,
      "racter": 1537,
      "Ġsource": 1538,
      "Ġsile": 1539,
      "Ġsub": 1540,
      "Ġsoc": 1541,
      "stat": 1542,
      "strong": 1543,
      "static": 1544,
      "strating": 1545,
      "tations": 1546,
      "table": 1547,
      "utf": 1548,
      "Ġca": 1549,
      "Ġcol": 1550,
      "Ġcur": 1551,
      "Ġcan": 1552,
      "vements": 1553,
      "thentic": 1554,
      "tics": 1555,
      "als": 1556,
      "althy": 1557,
      "hat": 1558,
      "istics": 1559,
      "itHub": 1560,
      "ecur": 1561,
      "econom": 1562,
      "mpro": 1563,
      "crawler": 1564,
      "ublish": 1565,
      "ckage": 1566,
      "gizing": 1567,
      "logizing": 1568,
      "pass": 1569,
      "keys": 1570,
      "oduce": 1571,
      "pped": 1572,
      "modules": 1573,
      "licy": 1574,
      "Ġtru": 1575,
      "ĠSupported": 1576,
      "ware": 1577,
      "Ġresponsi": 1578,
      "==\\": 1579,
      "ĠTHE": 1580,
      "ĠTYPE": 1581,
      "ĠAdd": 1582,
      "ĠAccepting": 1583,
      "ness": 1584,
      "nerability": 1585,
      "Ġopin": 1586,
      "ĠCON": 1587,
      "ĠCURRENT": 1588,
      "ĠChangelog": 1589,
      "Ġboth": 1590,
      "Ġbinar": 1591,
      "urn": 1592,
      "Ġdo": 1593,
      "Ġdist": 1594,
      "Ġdocs": 1595,
      "Ġdownload": 1596,
      "rieve": 1597,
      "CKING": 1598,
      "Ġinvisible": 1599,
      "Ġinstall": 1600,
      "fig": 1601,
      "ĠRedistribution": 1602,
      "here": 1603,
      "args": 1604,
      "arning": 1605,
      "process": 1606,
      "libs": 1607,
      "Ġimplementation": 1608,
      "200": 1609,
      "203": 1610,
      "205": 1611,
      "208": 1612,
      "2025": 1613,
      "2024": 1614,
      "2014": 1615,
      "Ġget": 1616,
      "Ġgit": 1617,
      "ions": 1618,
      "mat": 1619,
      "master": 1620,
      "maxAge": 1621,
      "Ġwhen": 1622,
      "Ġwhat": 1623,
      "Ġwhere": 1624,
      "301": 1625,
      "302": 1626,
      "305": 1627,
      "306": 1628,
      "ulnerability": 1629,
      "Ġedu": 1630,
      "321": 1631,
      "325": 1632,
      "329": 1633,
      "463": 1634,
      "Ġextra": 1635,
      "REPO": 1636,
      "REQUIRED": 1637,
      "able": 1638,
      "182": 1639,
      "186": 1640,
      "188": 1641,
      "intro": 1642,
      "**,": 1643,
      "251": 1644,
      "indness": 1645,
      "247": 1646,
      "381": 1647,
      "383": 1648,
      "Ġhealthy": 1649,
      "370": 1650,
      "371": 1651,
      "374": 1652,
      "377": 1653,
      "378": 1654,
      "depend": 1655,
      "Ġnotice": 1656,
      "289": 1657,
      "290": 1658,
      "297": 1659,
      "298": 1660,
      "350": 1661,
      "352": 1662,
      "ocus": 1663,
      "ople": 1664,
      "options": 1665,
      "117": 1666,
      "270": 1667,
      "367": 1668,
      "nguage": 1669,
      "262": 1670,
      "269": 1671,
      "470": 1672,
      "Ġusing": 1673,
      "Ġunder": 1674,
      "istake": 1675,
      "Ġmain": 1676,
      "Ġdepend": 1677,
      "==========\\": 1678,
      "152": 1679,
      "159": 1680,
      "341": 1681,
      "clai": 1682,
      "edback": 1683,
      "ency": 1684,
      "100": 1685,
      "143": 1686,
      "400": 1687,
      "407": 1688,
      "408": 1689,
      "450": 1690,
      "455": 1691,
      "457": 1692,
      "Ġmust": 1693,
      "Ġmistake": 1694,
      "overage": 1695,
      "ĠFalse": 1696,
      "ĠFix": 1697,
      "ĠFocus": 1698,
      "ĠIN": 1699,
      "ĠIMP": 1700,
      "Ġleaders": 1701,
      "Ġlearning": 1702,
      "Ġhave": 1703,
      "Ġcompa": 1704,
      "492": 1705,
      "498": 1706,
      "html": 1707,
      "Ġper": 1708,
      "Ġpeople": 1709,
      "gnore": 1710,
      "rset": 1711,
      "Ġanno": 1712,
      "Ġcharacter": 1713,
      "\\\").": 1714,
      "\\\"),\\": 1715,
      "Ġsetuptool": 1716,
      "ĠGiving": 1717,
      "ĠGitHub": 1718,
      "Ġupda": 1719,
      "Ġupgra": 1720,
      "Ġproject": 1721,
      "Ġcontribute": 1722,
      "Ġincludes": 1723,
      "000": 1724,
      "482": 1725,
      "ITY": 1726,
      "nIf": 1727,
      "Ġshlex": 1728,
      "Ġfeedback": 1729,
      "ĠStatus": 1730,
      "Ġdisclai": 1731,
      "Ġinteract": 1732,
      "```\\": 1733,
      "Ġwithout": 1734,
      "86400": 1735,
      "IES": 1736,
      "\\\":\\": 1737,
      "nRequests": 1738,
      "Ġ*_": 1739,
      "Ġpypy": 1740,
      "Ġpytest": 1741,
      "Ġabove": 1742,
      "Ġstatus": 1743,
      "Ġrequire": 1744,
      "Ġrequires": 1745,
      "Ġtoward": 1746,
      "Ġtowards": 1747,
      "==========================\\": 1748,
      "Ġstrings": 1749,
      "ĠVersions": 1750,
      "AsyncCrawlerProcess": 1751,
      "AsyncCrawlerRun": 1752,
      "authentic": 1753,
      "monstrating": 1754,
      "Ġkindness": 1755,
      "Ġrun": 1756,
      "ĠDemonstrating": 1757,
      "ndef": 1758,
      "Ġreturn": 1759,
      "Ġthose": 1760,
      "Ġ2024": 1761,
      "Ġname": 1762,
      "-------------------\\": 1763,
      "Ġchanges": 1764,
      "Ġprovided": 1765,
      "ĠDropped": 1766,
      "Ġdocumentation": 1767,
      "AIOHTTP": 1768,
      "CHECKING": 1769,
      "LIED": 1770,
      "RANTIES": 1771,
      "Subprocess": 1772,
      "Test": 1773,
      "TRIBUT": 1774,
      "branch": 1775,
      "future": 1776,
      "kgconfig": 1777,
      "mockserver": 1778,
      "nnationality": 1779,
      "nnox": 1780,
      "system": 1781,
      "Ġways": 1782,
      "Ġgracefully": 1783,
      "Ġpip": 1784,
      "Ġlibrary": 1785,
      "ĠURL": 1786,
      "Ġlanguage": 1787,
      "ĠWARRANTIES": 1788,
      "Ġ{}.{": 1789,
      "Ġapologizing": 1790,
      "Ġaffected": 1791,
      "exists": 1792,
      "nstall": 1793,
      "ndiverse": 1794,
      "Ġsilent": 1795,
      "Ġsocio": 1796,
      "status": 1797,
      "Ġcurrent": 1798,
      "ecurity": 1799,
      "economic": 1800,
      "mprovements": 1801,
      "Ġresponsibility": 1802,
      "ĠAdded": 1803,
      "Ġopinions": 1804,
      "ĠCONTRIBUT": 1805,
      "Ġbinary": 1806,
      "ĠRedistributions": 1807,
      "Ġeducation": 1808,
      "Ġdependency": 1809,
      "Ġmistakes": 1810,
      "ĠFocusing": 1811,
      "ĠIMPLIED": 1812,
      "Ġannotations": 1813,
      "Ġcharacteristics": 1814,
      "Ġsetuptools": 1815,
      "Ġdisclaimer": 1816,
      "AsyncCrawlerRunner": 1817,
      "authenticated": 1818,
      "!/": 1819,
      "!=": 1820,
      "!\\": 1821,
      "#!/": 1822,
      "')": 1823,
      "':": 1824,
      "'s": 1825,
      "'{": 1826,
      "'re": 1827,
      "')\\": 1828,
      "'ll": 1829,
      "'></": 1830,
      "']\\": 1831,
      "()": 1832,
      "(__": 1833,
      ")](": 1834,
      "*\\": 1835,
      "*\\\")\\": 1836,
      "+`": 1837,
      "+\\\")\\": 1838,
      "->": 1839,
      ".</": 1840,
      "/\\": 1841,
      "/\\\">\\": 1842,
      "/\\\"><": 1843,
      "/')\\": 1844,
      "/*\\\")\\": 1845,
      "01": 1846,
      "06": 1847,
      "132": 1848,
      "118": 1849,
      "138": 1850,
      "135": 1851,
      "136": 1852,
      "144": 1853,
      "147": 1854,
      "232": 1855,
      "219": 1856,
      "229": 1857,
      "227": 1858,
      "239": 1859,
      "213": 1860,
      "216": 1861,
      "212": 1862,
      "223": 1863,
      "320": 1864,
      "332": 1865,
      "346": 1866,
      "318": 1867,
      "335": 1868,
      "311": 1869,
      "314": 1870,
      "313": 1871,
      "420": 1872,
      "419": 1873,
      "425": 1874,
      "424": 1875,
      "429": 1876,
      "435": 1877,
      "411": 1878,
      "427": 1879,
      "415": 1880,
      "413": 1881,
      "431": 1882,
      "725": 1883,
      "756": 1884,
      "=%": 1885,
      "='": 1886,
      "=<": 1887,
      "=\\": 1888,
      "=('": 1889,
      ">-": 1890,
      ">`": 1891,
      "?\\\",": 1892,
      "AI": 1893,
      "AL": 1894,
      "AS": 1895,
      "ARE": 1896,
      "ASE": 1897,
      "ANG": 1898,
      "Amain": 1899,
      "ACI": 1900,
      "Be": 1901,
      "CH": 1902,
      "CUR": 1903,
      "Coverage": 1904,
      "DING": 1905,
      "Download": 1906,
      "EL": 1907,
      "EN": 1908,
      "EV": 1909,
      "En": 1910,
      "Er": 1911,
      "ENS": 1912,
      "ESS": 1913,
      "ECUR": 1914,
      "Fj": 1915,
      "Fn": 1916,
      "For": 1917,
      "GH": 1918,
      "GFj": 1919,
      "Hint": 1920,
      "How": 1921,
      "HANG": 1922,
      "IL": 1923,
      "IM": 1924,
      "IDE": 1925,
      "ITE": 1926,
      "Install": 1927,
      "Improvements": 1928,
      "Jo": 1929,
      "Kee": 1930,
      "Loc": 1931,
      "LDE": 1932,
      "LAR": 1933,
      "Mock": 1934,
      "Ng": 1935,
      "Nz": 1936,
      "NRE": 1937,
      "Now": 1938,
      "NESS": 1939,
      "OG": 1940,
      "OS": 1941,
      "OT": 1942,
      "OV": 1943,
      "On": 1944,
      "OLDE": 1945,
      "PRE": 1946,
      "Python": 1947,
      "Path": 1948,
      "PUT": 1949,
      "Pack": 1950,
      "RS": 1951,
      "Ret": 1952,
      "RCH": 1953,
      "ROV": 1954,
      "ST": 1955,
      "Sh": 1956,
      "Server": 1957,
      "Session": 1958,
      "Suite": 1959,
      "Security": 1960,
      "TW": 1961,
      "TOR": 1962,
      "TIC": 1963,
      "TAL": 1964,
      "Uns": 1965,
      "Using": 1966,
      "UDING": 1967,
      "UGFj": 1968,
      "ULAR": 1969,
      "UNRE": 1970,
      "VE": 1971,
      "You": 1972,
      "ZS": 1973,
      "['": 1974,
      "[-": 1975,
      "[:": 1976,
      "[![": 1977,
      "\\[": 1978,
      "\\]\\": 1979,
      "]>\\": 1980,
      "],\\": 1981,
      "_...\",": 1982,
      "`\\": 1983,
      "am": 1984,
      "ap": 1985,
      "as": 1986,
      "ay": 1987,
      "ation": 1988,
      "ain": 1989,
      "ast": 1990,
      "async": 1991,
      "accep": 1992,
      "ail": 1993,
      "ating": 1994,
      "asi": 1995,
      "but": 1996,
      "bro": 1997,
      "ban": 1998,
      "basi": 1999,
      "cf": 2000,
      "cs": 2001,
      "cut": 2002,
      "cha": 2003,
      "ccess": 2004,
      "cpython": 2005,
      "changelog": 2006,
      "coverage": 2007,
      "cOS": 2008,
      "dv": 2009,
      "dth": 2010,
      "ders": 2011,
      "eb": 2012,
      "ei": 2013,
      "epa": 2014,
      "event": 2015,
      "ft": 2016,
      "fted": 2017,
      "ftp": 2018,
      "fur": 2019,
      "ftest": 2020,
      "fly": 2021,
      "gg": 2022,
      "gr": 2023,
      "gv": 2024,
      "git": 2025,
      "gration": 2026,
      "glo": 2027,
      "ger": 2028,
      "gene": 2029,
      "gfi": 2030,
      "ginal": 2031,
      "gat": 2032,
      "hra": 2033,
      "hel": 2034,
      "how": 2035,
      "hype": 2036,
      "ited": 2037,
      "imp": 2038,
      "ific": 2039,
      "import": 2040,
      "ide": 2041,
      "ight": 2042,
      "ites": 2043,
      "ici": 2044,
      "ignore": 2045,
      "just": 2046,
      "king": 2047,
      "kwar": 2048,
      "ld": 2049,
      "lon": 2050,
      "lit": 2051,
      "lling": 2052,
      "late": 2053,
      "lab": 2054,
      "lder": 2055,
      "lone": 2056,
      "mra": 2057,
      "mit": 2058,
      "mar": 2059,
      "malize": 2060,
      "move": 2061,
      "mited": 2062,
      "nv": 2063,
      "ny": 2064,
      "nce": 2065,
      "nor": 2066,
      "network": 2067,
      "nne": 2068,
      "nhttps": 2069,
      "ntest": 2070,
      "nTH": 2071,
      "ncon": 2072,
      "now": 2073,
      "nUSE": 2074,
      "nual": 2075,
      "npin": 2076,
      "nHERE": 2077,
      "nHTTPX": 2078,
      "nNO": 2079,
      "ncol": 2080,
      "nrequi": 2081,
      "nREQUIRED": 2082,
      "nBe": 2083,
      "nNow": 2084,
      "nUns": 2085,
      "os": 2086,
      "ote": 2087,
      "oid": 2088,
      "oster": 2089,
      "olicy": 2090,
      "oft": 2091,
      "ogat": 2092,
      "por": 2093,
      "ping": 2094,
      "pile": 2095,
      "pli": 2096,
      "png": 2097,
      "publish": 2098,
      "pkgconfig": 2099,
      "plit": 2100,
      "rted": 2101,
      "rst": 2102,
      "ris": 2103,
      "rit": 2104,
      "roduce": 2105,
      "rglo": 2106,
      "set": 2107,
      "spon": 2108,
      "spi": 2109,
      "sul": 2110,
      "stions": 2111,
      "scrip": 2112,
      "sock": 2113,
      "shel": 2114,
      "split": 2115,
      "td": 2116,
      "tw": 2117,
      "tre": 2118,
      "tor": 2119,
      "tli": 2120,
      "tri": 2121,
      "uv": 2122,
      "ux": 2123,
      "uth": 2124,
      "uni": 2125,
      "uil": 2126,
      "ualize": 2127,
      "uting": 2128,
      "uid": 2129,
      "umer": 2130,
      "umber": 2131,
      "uites": 2132,
      "vulnerability": 2133,
      "wri": 2134,
      "wel": 2135,
      "whe": 2136,
      "wiste": 2137,
      "whi": 2138,
      "wered": 2139,
      "web": 2140,
      "xes": 2141,
      "ypy": 2142,
      "yPy": 2143,
      "yping": 2144,
      "zst": 2145,
      "{'": 2146,
      "},": 2147,
      "}\\": 2148,
      "Ġ&": 2149,
      "Ġ+": 2150,
      "Ġ_": 2151,
      "Ġte": 2152,
      "Ġput": 2153,
      "ĠCP": 2154,
      "Ġen": 2155,
      "Ġque": 2156,
      "Ġwork": 2157,
      "ĠEx": 2158,
      "Ġ==": 2159,
      "Ġ--": 2160,
      "Ġ----": 2161,
      "Ġter": 2162,
      "Ġpython": 2163,
      "ĠME": 2164,
      "Ġwar": 2165,
      "Ġright": 2166,
      "ĠEX": 2167,
      "Ġ).": 2168,
      "ĠRun": 2169,
      "Ġline": 2170,
      "Ġ----------------": 2171,
      "Ġmodules": 2172,
      "Ġ!=": 2173,
      "Ġ->": 2174,
      "ĠEV": 2175,
      "ĠMock": 2176,
      "ĠRet": 2177,
      "ĠUsing": 2178,
      "ĠYou": 2179,
      "Ġjust": 2180,
      "Ġlon": 2181,
      "Ġvulnerability": 2182,
      "ĠĠĠĠĠĠĠĠĠĠĠĠĠĠĠ": 2183,
      "tifi": 2184,
      "\",\\": 2185,
      "tens": 2186,
      "teration": 2187,
      "tena": 2188,
      "tech": 2189,
      "ons": 2190,
      "ontent": 2191,
      "release": 2192,
      "rements": 2193,
      "react": 2194,
      "Ġ{\\": 2195,
      "ces": 2196,
      "cember": 2197,
      "peci": 2198,
      "peline": 2199,
      "init": 2200,
      "inter": 2201,
      "inux": 2202,
      "oup": 2203,
      "ound": 2204,
      "ould": 2205,
      "ctions": 2206,
      "mely": 2207,
      "thod": 2208,
      "sted": 2209,
      "rest": 2210,
      "resentation": 2211,
      "lect": 2212,
      "level": 2213,
      "lega": 2214,
      "lections": 2215,
      "orn": 2216,
      "orse": 2217,
      "Ġans": 2218,
      "Ġaware": 2219,
      "Ġadv": 2220,
      "Ġauth": 2221,
      "example": 2222,
      "nsupp": 2223,
      "nsust": 2224,
      "ndor": 2225,
      "rack": 2226,
      "racefully": 2227,
      "rafted": 2228,
      "timeEr": 2229,
      "oding": 2230,
      "oday": 2231,
      "odific": 2232,
      "policy": 2233,
      "Ġsend": 2234,
      "Ġsize": 2235,
      "Ġsty": 2236,
      "Ġsdist": 2237,
      "Ġsee": 2238,
      "Ġsoft": 2239,
      "Ġsuites": 2240,
      "Ġspeci": 2241,
      "strip": 2242,
      "Ġful": 2243,
      "Ġfoster": 2244,
      "Ġcri": 2245,
      "Ġcython": 2246,
      "Ġcla": 2247,
      "Ġclone": 2248,
      "Ġcrafted": 2249,
      "etrc": 2250,
      "sed": 2251,
      "secur": 2252,
      "ved": 2253,
      "venv": 2254,
      "vendor": 2255,
      "Requests": 2256,
      "Respon": 2257,
      "ticis": 2258,
      "alici": 2259,
      "Ġreposit": 2260,
      "Ġrever": 2261,
      "Ġrelease": 2262,
      "Ġretain": 2263,
      "issu": 2264,
      "pyt": 2265,
      "pyversion": 2266,
      "pycon": 2267,
      "eck": 2268,
      "ecide": 2269,
      "mpli": 2270,
      "mpact": 2271,
      "env": 2272,
      "run": 2273,
      "Ġformat": 2274,
      "days": 2275,
      "Ġcodecs": 2276,
      ":\\\",": 2277,
      "Ġ[]\\": 2278,
      "Ġ[],\\": 2279,
      "githubuse": 2280,
      "loop": 2281,
      "\\\".": 2282,
      "\\\"\\": 2283,
      "nFor": 2284,
      "sources": 2285,
      "Ġreser": 2286,
      "package": 2287,
      "paris": 2288,
      "ExNg": 2289,
      "keepa": 2290,
      "oduct": 2291,
      "ived": 2292,
      "error": 2293,
      "erived": 2294,
      "Ġtry": 2295,
      "Ġtrue": 2296,
      "Ġtype": 2297,
      "Ġtwiste": 2298,
      "Ġtyping": 2299,
      "Ġtrack": 2300,
      "Ġtoday": 2301,
      "ross": 2302,
      "rolling": 2303,
      "Ġpackage": 2304,
      "ĠScrapy": 2305,
      "ĠSOF": 2306,
      "ĠSuite": 2307,
      "ĠSecurity": 2308,
      "ĠSECUR": 2309,
      "ĠShow": 2310,
      "wadays": 2311,
      "ĠHist": 2312,
      "ĠHIS": 2313,
      "ĠHOLDE": 2314,
      "NSTAL": 2315,
      "Ġconfi": 2316,
      "Ġconsi": 2317,
      "Ġconftest": 2318,
      "===\\": 2319,
      "httpbin": 2320,
      "ĠTO": 2321,
      "ĠTo": 2322,
      "ĠThis": 2323,
      "ĠTrolling": 2324,
      "oks": 2325,
      "ĠARE": 2326,
      "ateri": 2327,
      "new": 2328,
      "Ġolder": 2329,
      "ĠCython": 2330,
      "ĠCHANG": 2331,
      "ĠCVE": 2332,
      "ĠNove": 2333,
      "ĠNone": 2334,
      "ĠNei": 2335,
      "ĠNumer": 2336,
      "Ġtopi": 2337,
      "Ġtoge": 2338,
      "Ġbase": 2339,
      "Ġbdist": 2340,
      "Ġbuil": 2341,
      "grated": 2342,
      "ents": 2343,
      "Ġnon": 2344,
      "Ġnor": 2345,
      "Ġnext": 2346,
      "Ġnumber": 2347,
      "Ġnetrc": 2348,
      "Ġdecide": 2349,
      "Ġderived": 2350,
      "rior": 2351,
      "enerate": 2352,
      "enerator": 2353,
      "ssl": 2354,
      "..\",": 2355,
      "...\\": 2356,
      "....\",": 2357,
      "pipeline": 2358,
      "ortcut": 2359,
      "eline": 2360,
      "nts": 2361,
      "advis": 2362,
      "Ġintr": 2363,
      "Ġinfo": 2364,
      "Ġinstal": 2365,
      "Ġinfor": 2366,
      "Ġinsul": 2367,
      "fied": 2368,
      "ĠLIC": 2369,
      "ĠLIM": 2370,
      "ĠLtd": 2371,
      "ĠLinux": 2372,
      "ĠRemove": 2373,
      "ĠRepor": 2374,
      "ĠHTTPX": 2375,
      "Ġresolve": 2376,
      ".\\\\]\\": 2377,
      "headers": 2378,
      "cert": 2379,
      "certifi": 2380,
      ")\\\",\\": 2381,
      ":/...\",": 2382,
      "Ġcertain": 2383,
      "=======\\": 2384,
      "argv": 2385,
      "proc": 2386,
      "lows": 2387,
      "Ġcertificates": 2388,
      "Ġima": 2389,
      "Ġignore": 2390,
      "Ġimprovements": 2391,
      "Ġiteration": 2392,
      "Ġimpact": 2393,
      "207": 2394,
      "209": 2395,
      "2019": 2396,
      "2017": 2397,
      "Ġguid": 2398,
      "Ġgenerate": 2399,
      "Ġ\\\"-": 2400,
      "Ġ\\\".": 2401,
      "Ġ\\\"\\\"\\\"": 2402,
      "mation": 2403,
      "mand": 2404,
      "mach": 2405,
      "Ġwe": 2406,
      "Ġwee": 2407,
      "Ġwrong": 2408,
      "Ġwrit": 2409,
      "303": 2410,
      "ulling": 2411,
      "ĠPUR": 2412,
      "ĠPAR": 2413,
      "ĠPROV": 2414,
      "ĠPolicy": 2415,
      "ĠPyPy": 2416,
      "Ġeas": 2417,
      "Ġelega": 2418,
      "testproc": 2419,
      "326": 2420,
      "328": 2421,
      "462": 2422,
      "464": 2423,
      "465": 2424,
      "466": 2425,
      "468": 2426,
      "469": 2427,
      "Ġextre": 2428,
      "README": 2429,
      "abc": 2430,
      "abling": 2431,
      "compile": 2432,
      "comparis": 2433,
      "terfly": 2434,
      "180": 2435,
      "181": 2436,
      "183": 2437,
      "187": 2438,
      "190": 2439,
      "191": 2440,
      "193": 2441,
      "194": 2442,
      "195": 2443,
      "196": 2444,
      "197": 2445,
      "198": 2446,
      "**:\\": 2447,
      "**.\\": 2448,
      "252": 2449,
      "258": 2450,
      "romote": 2451,
      "vial": 2452,
      "...*\\": 2453,
      "240": 2454,
      "242": 2455,
      "243": 2456,
      "244": 2457,
      "249": 2458,
      "384": 2459,
      "385": 2460,
      "386": 2461,
      "387": 2462,
      "Ġpref": 2463,
      "Ġplease": 2464,
      "Ġpublish": 2465,
      "Ġpkgconfig": 2466,
      "Ġprior": 2467,
      "Ġpulling": 2468,
      "Ġpromote": 2469,
      "Ġhere": 2470,
      "Ġheight": 2471,
      "Ġbodies": 2472,
      "379": 2473,
      "dev": 2474,
      "dered": 2475,
      "default": 2476,
      "izes": 2477,
      "Ġnotable": 2478,
      "Ġnowadays": 2479,
      "Ġgenerally": 2480,
      "281": 2481,
      "282": 2482,
      "284": 2483,
      "287": 2484,
      "291": 2485,
      "293": 2486,
      "299": 2487,
      "351": 2488,
      "353": 2489,
      "354": 2490,
      "356": 2491,
      "358": 2492,
      "attr": 2493,
      "ild": 2494,
      "ily": 2495,
      "110": 2496,
      "111": 2497,
      "112": 2498,
      "116": 2499,
      "271": 2500,
      "272": 2501,
      "274": 2502,
      "275": 2503,
      "277": 2504,
      "2717": 2505,
      "361": 2506,
      "362": 2507,
      "365": 2508,
      "366": 2509,
      "369": 2510,
      "3608": 2511,
      "parent": 2512,
      "tributing": 2513,
      "Ġendorse": 2514,
      "###": 2515,
      "170": 2516,
      "171": 2517,
      "172": 2518,
      "174": 2519,
      "178": 2520,
      "263": 2521,
      "264": 2522,
      "266": 2523,
      "267": 2524,
      "268": 2525,
      "441": 2526,
      "444": 2527,
      "449": 2528,
      "471": 2529,
      "475": 2530,
      "477": 2531,
      "478": 2532,
      "Ġhype": 2533,
      "Ġholder": 2534,
      "Ġhost": 2535,
      "Ġunsust": 2536,
      "ĠAPIs": 2537,
      "testsite": 2538,
      "(\\\"*.": 2539,
      "Context": 2540,
      "Ġ(<": 2541,
      "Ġ(\\": 2542,
      "Ġlooks": 2543,
      "ĠmacOS": 2544,
      "Ġmaking": 2545,
      "Ġmanual": 2546,
      "Ġbest": 2547,
      "Ġbeen": 2548,
      "Ġdefault": 2549,
      "Ġdeps": 2550,
      "Ġdescrip": 2551,
      "===============\\": 2552,
      "156": 2553,
      "343": 2554,
      "345": 2555,
      "348": 2556,
      "349": 2557,
      "342717": 2558,
      "nand": 2559,
      "rcontent": 2560,
      "rcorn": 2561,
      "encoding": 2562,
      "102": 2563,
      "104": 2564,
      "141": 2565,
      "148": 2566,
      "390": 2567,
      "391": 2568,
      "392": 2569,
      "394": 2570,
      "395": 2571,
      "401": 2572,
      "403": 2573,
      "451": 2574,
      "453": 2575,
      "derogat": 2576,
      "ĠOF": 2577,
      "ĠOK": 2578,
      "ĠOR": 2579,
      "ĠOSS": 2580,
      "Ġmore": 2581,
      "Ġmost": 2582,
      "Ġmypy": 2583,
      "Ġmodific": 2584,
      "Ġmalici": 2585,
      "Ġmateri": 2586,
      "Ġall": 2587,
      "Ġallows": 2588,
      "Ġsupported": 2589,
      "usr": 2590,
      "ĠFo": 2591,
      "ĠFIT": 2592,
      "ĠFOR": 2593,
      "ĠIt": 2594,
      "ĠINSTAL": 2595,
      "Ġyet": 2596,
      "Ġlet": 2597,
      "Ġleast": 2598,
      "Ġhad": 2599,
      "Ġcomments": 2600,
      "Ġcommand": 2601,
      "133": 2602,
      "163": 2603,
      "164": 2604,
      "165": 2605,
      "167": 2606,
      "168": 2607,
      "495": 2608,
      "499": 2609,
      "preters": 2610,
      "type": 2611,
      "Ġbyte": 2612,
      "Ġbytes": 2613,
      "Ġused": 2614,
      "Ġusers": 2615,
      "121": 2616,
      "122": 2617,
      "123": 2618,
      "1236": 2619,
      "PYRI": 2620,
      "context": 2621,
      "content": 2622,
      "contributing": 2623,
      "esn": 2624,
      "mented": 2625,
      "Ġsexualize": 2626,
      "Ġcharset": 2627,
      "Ġchanne": 2628,
      "ĠThere": 2629,
      "dentials": 2630,
      "231": 2631,
      "MED": 2632,
      "__).": 2633,
      "ching": 2634,
      "check": 2635,
      "success": 2636,
      "ĠGracefully": 2637,
      "ĠGenerator": 2638,
      "Ġone": 2639,
      "Ġmet": 2640,
      "Ġmemra": 2641,
      "Ġmethod": 2642,
      "Ġupon": 2643,
      "Ġupload": 2644,
      "Ġproving": 2645,
      "tainers": 2646,
      "Ġwidth": 2647,
      "Ġcontributing": 2648,
      "487": 2649,
      "ances": 2650,
      "nIS": 2651,
      "nIn": 2652,
      "nInstall": 2653,
      "sider": 2654,
      "ĠBY": 2655,
      "ĠBUT": 2656,
      "ĠDiscord": 2657,
      "ĠDIS": 2658,
      "ĠVulnerability": 2659,
      "Ġlike": 2660,
      "Ġlimited": 2661,
      "Ġnew": 2662,
      "Ġnega": 2663,
      "Ġshuti": 2664,
      "Ġshould": 2665,
      "Ġshortcut": 2666,
      "Ġintegration": 2667,
      "Ġinterest": 2668,
      "Ġintegrated": 2669,
      "Ġproduct": 2670,
      "cording": 2671,
      "237289": 2672,
      "POSE": 2673,
      "POST": 2674,
      "guration": 2675,
      "idna": 2676,
      "nThis": 2677,
      "nRelease": 2678,
      "nRedistribution": 2679,
      "Ġ*(": 2680,
      "Ġ\\\\[": 2681,
      "ĠREQUIRED": 2682,
      "Ġabout": 2683,
      "Ġabuse": 2684,
      "Ġaround": 2685,
      "ndard": 2686,
      "Ġstarted": 2687,
      "Ġstandard": 2688,
      "Ġreport": 2689,
      "Ġrephra": 2690,
      "Ġreproduce": 2691,
      "Ġrepresentation": 2692,
      "ĠANY": 2693,
      "ĠCOPYRI": 2694,
      "ĠNOT": 2695,
      "ĠNOTE": 2696,
      "Ġnoxfile": 2697,
      "Ġoriginal": 2698,
      "Ġissues": 2699,
      "Ġdeprecations": 2700,
      "Ġparticipants": 2701,
      "933608": 2702,
      "ANTAB": 2703,
      "ORS": 2704,
      "auth": 2705,
      "backend": 2706,
      "month": 2707,
      "nings": 2708,
      "Ġknow": 2709,
      "Ġruns": 2710,
      "Ġ...'\\": 2711,
      "Ġ...?\\\",": 2712,
      "Ġ...}\\": 2713,
      "ĠDecember": 2714,
      "ndev": 2715,
      "Ġsimple": 2716,
      "Ġside": 2717,
      "Ġsimpli": 2718,
      "string": 2719,
      "Ġcreated": 2720,
      "Ġcreating": 2721,
      "Ġcredentials": 2722,
      "Ġretrieve": 2723,
      "Ġforms": 2724,
      "\\\"\\\"\\\".": 2725,
      "Ġ2019": 2726,
      "ĠSSLContext": 2727,
      "Ġnationality": 2728,
      "Ġmakefile": 2729,
      "Ġprovides": 2730,
      "ĠDrop": 2731,
      "Ġfeatured": 2732,
      "Ġdocumented": 2733,
      "ABLE": 2734,
      "Bugfi": 2735,
      "Build": 2736,
      "CLAI": 2737,
      "CLUDING": 2738,
      "LEASE": 2739,
      "PyPI": 2740,
      "come": 2741,
      "color": 2742,
      "format": 2743,
      "mission": 2744,
      "missing": 2745,
      "nCopyright": 2746,
      "nCURRENT": 2747,
      "psf": 2748,
      "Ġunaccep": 2749,
      "Ġunwel": 2750,
      "tention": 2751,
      "requirements": 2752,
      "ously": 2753,
      "Ġacross": 2754,
      "Ġaccording": 2755,
      "Ġattention": 2756,
      "Ġavail": 2757,
      "Ġavoid": 2758,
      "Ġsubmodule": 2759,
      "Ġsubmodules": 2760,
      "Ġcaste": 2761,
      "Ġcaching": 2762,
      "Ġcolor": 2763,
      "Ġcollections": 2764,
      "oduced": 2765,
      "Ġtrust": 2766,
      "Ġtrusted": 2767,
      "Ġdoesn": 2768,
      "Ġdistribution": 2769,
      "Ġdownloads": 2770,
      "Ġdownloaded": 2771,
      "Ġextras": 2772,
      "depended": 2773,
      "dependents": 2774,
      "47081": 2775,
      "Ġmaintena": 2776,
      "Ġmaintainers": 2777,
      "ĠFixed": 2778,
      "ĠINCLUDING": 2779,
      "Ġcompares": 2780,
      "Ġcompact": 2781,
      "Ġpermit": 2782,
      "Ġpermission": 2783,
      "Ġupdate": 2784,
      "Ġupdates": 2785,
      "Ġupgrade": 2786,
      "Ġupgrading": 2787,
      "AsyncCrawlerProcessSubprocess": 2788,
      "Ġnames": 2789,
      "ĠURLs": 2790,
      "Ġ{}.{}.": 2791,
      "Ġ{}.{},": 2792,
      "Ġcurrently": 2793,
      "ĠCONTRIBUTING": 2794,
      "ĠCONTRIBUTORS": 2795,
      "AsyncCrawlerRunnerSubprocess": 2796,
      "'))\\": 2797,
      "'{\\\"": 2798,
      "725933608": 2799,
      "756342717": 2800,
      "Downloads": 2801,
      "ELOG": 2802,
      "ENABLE": 2803,
      "Encode": 2804,
      "ENSE": 2805,
      "FnZS": 2806,
      "GHT": 2807,
      "ILITY": 2808,
      "IDED": 2809,
      "ITED": 2810,
      "Join": 2811,
      "Keep": 2812,
      "Local": 2813,
      "NzA": 2814,
      "OTExNg": 2815,
      "Online": 2816,
      "PRESS": 2817,
      "Package": 2818,
      "RCHANTAB": 2819,
      "Short": 2820,
      "TWARE": 2821,
      "TORY": 2822,
      "TICULAR": 2823,
      "UGFja": 2824,
      "UNRELEASE": 2825,
      "appli": 2826,
      "ainable": 2827,
      "asyncio": 2828,
      "butterfly": 2829,
      "brotli": 2830,
      "banner": 2831,
      "basic": 2832,
      "cfla": 2833,
      "charset": 2834,
      "ftpserver": 2835,
      "fury": 2836,
      "group": 2837,
      "gery": 2838,
      "generation": 2839,
      "hyper": 2840,
      "impl": 2841,
      "kwargs": 2842,
      "latest": 2843,
      "label": 2844,
      "mark": 2845,
      "malizer": 2846,
      "nyou": 2847,
      "normalizer": 2848,
      "nTHIS": 2849,
      "nconsider": 2850,
      "ncollect": 2851,
      "nrequires": 2852,
      "nUnsupported": 2853,
      "rglob": 2854,
      "setup": 2855,
      "spiders": 2856,
      "socks": 2857,
      "shell": 2858,
      "twine": 2859,
      "trivial": 2860,
      "union": 2861,
      "write": 2862,
      "wheel": 2863,
      "white": 2864,
      "zstd": 2865,
      "Ġteam": 2866,
      "ĠCPython": 2867,
      "Ġenabling": 2868,
      "Ġquestions": 2869,
      "Ġworking": 2870,
      "ĠExtens": 2871,
      "Ġ-------": 2872,
      "Ġterm": 2873,
      "ĠMERCHANTAB": 2874,
      "Ġwarnings": 2875,
      "Ġrights": 2876,
      "ĠEXPRESS": 2877,
      "ĠRuntimeEr": 2878,
      "Ġ------------------": 2879,
      "ĠMockServer": 2880,
      "ĠRetrieve": 2881,
      "Ġlong": 2882,
      "releaselevel": 2883,
      "reactor": 2884,
      "interpreters": 2885,
      "Ġanswered": 2886,
      "Ġadvances": 2887,
      "nsupport": 2888,
      "Ġstyle": 2889,
      "Ġsoftware": 2890,
      "Ġspecific": 2891,
      "Ġfully": 2892,
      "Ġfostering": 2893,
      "Ġcriticis": 2894,
      "Ġcythonizes": 2895,
      "Ġclass": 2896,
      "security": 2897,
      "Response": 2898,
      "Ġrepositories": 2899,
      "Ġrevert": 2900,
      "issues": 2901,
      "pyversions": 2902,
      "githubusercontent": 2903,
      "Ġreserved": 2904,
      "keepachangelog": 2905,
      "Ġtrying": 2906,
      "Ġtwisted": 2907,
      "Ġtracker": 2908,
      "Ġpackages": 2909,
      "ĠSOFTWARE": 2910,
      "ĠSECURITY": 2911,
      "ĠShowing": 2912,
      "ĠHistory": 2913,
      "ĠHISTORY": 2914,
      "ĠHOLDERS": 2915,
      "Ġconfiguration": 2916,
      "Ġconsidered": 2917,
      "ĠCHANGELOG": 2918,
      "ĠNovember": 2919,
      "ĠNeither": 2920,
      "ĠNumerous": 2921,
      "Ġtopic": 2922,
      "Ġtogether": 2923,
      "Ġbased": 2924,
      "Ġbuilding": 2925,
      "Ġdecided": 2926,
      "pipelines": 2927,
      "elines": 2928,
      "advisories": 2929,
      "Ġintroduced": 2930,
      "Ġinstalling": 2931,
      "Ġinformation": 2932,
      "Ġinsulting": 2933,
      "ĠLICENSE": 2934,
      "ĠLIMITED": 2935,
      "ĠRemoved": 2936,
      "ĠReporting": 2937,
      "Ġcertainly": 2938,
      "Ġimagery": 2939,
      "Ġguidelines": 2940,
      "Ġ\\\"\\\"\\\"\\": 2941,
      "machine": 2942,
      "Ġweek": 2943,
      "Ġwritten": 2944,
      "ĠPURPOSE": 2945,
      "ĠPARTICULAR": 2946,
      "ĠPROVIDED": 2947,
      "Ġeasily": 2948,
      "Ġelegant": 2949,
      "Ġextremely": 2950,
      "comparisons": 2951,
      "Ġprefered": 2952,
      "Ġhypercorn": 2953,
      "Ġhostname": 2954,
      "Ġunsustainable": 2955,
      "Ġmanually": 2956,
      "Ġdescription": 2957,
      "derogatory": 2958,
      "Ġmodification": 2959,
      "Ġmaliciously": 2960,
      "Ġmaterials": 2961,
      "ĠFITNESS": 2962,
      "ĠINSTALL": 2963,
      "Ġsexualized": 2964,
      "Ġchannels": 2965,
      "Ġmemray": 2966,
      "ĠDISCLAI": 2967,
      "Ġnegative": 2968,
      "Ġshutil": 2969,
      "Ġproducts": 2970,
      "Ġrephrased": 2971,
      "ĠCOPYRIGHT": 2972,
      "Ġoriginally": 2973,
      "Ġsimplified": 2974,
      "Bugfixes": 2975,
      "Ġunacceptable": 2976,
      "Ġunwelcome": 2977,
      "Ġavailable": 2978,
      "Ġmaintenance": 2979,
      "Ġpermitted": 2980,
      "756342717725933608": 2981,
      "ENABLED": 2982,
      "UNRELEASED": 2983,
      "application": 2984,
      "ĠExtension": 2985,
      "ĠMERCHANTABILITY": 2986,
      "ĠRuntimeError": 2987,
      "Ġcriticism": 2988,
      "ĠDISCLAIMED": 2989
    },
    "merges": [
      [
        "Ġ",
        "Ġ"
      ],
      [
        "ĠĠ",
        "ĠĠ"
      ],
      [
        "Ġ",
        "\""
      ],
      [
        "\"",
        ":"
      ],
      [
        "ĠĠĠĠ",
        "Ġ"
      ],
      [
        "ĠĠĠĠ",
        "ĠĠĠĠĠ"
      ],
      [
        "ĠĠ",
        "Ġ"
      ],
      [
        "t",
        "i"
      ],
      [
        "\"",
        ","
      ],
      [
        "t",
        "e"
      ],
      [
        "o",
        "n"
      ],
      [
        "r",
        "e"
      ],
      [
        "ĠĠĠĠ",
        "ĠĠĠ"
      ],
      [
        "Ġ",
        "{"
      ],
      [
        "ti",
        "on"
      ],
      [
        "Ġ",
        "}"
      ],
      [
        "c",
        "e"
      ],
      [
        "p",
        "e"
      ],
      [
        "i",
        "n"
      ],
      [
        "o",
        "u"
      ],
      [
        "c",
        "tion"
      ],
      [
        "m",
        "e"
      ],
      [
        "t",
        "h"
      ],
      [
        "s",
        "te"
      ],
      [
        "re",
        "s"
      ],
      [
        "ou",
        "r"
      ],
      [
        "ste",
        "p"
      ],
      [
        "our",
        "ce"
      ],
      [
        "Ġ}",
        ","
      ],
      [
        "l",
        "e"
      ],
      [
        "o",
        "r"
      ],
      [
        "Ġ",
        "a"
      ],
      [
        "e",
        "x"
      ],
      [
        "n",
        "s"
      ],
      [
        "n",
        "d"
      ],
      [
        "te",
        "d"
      ],
      [
        "ex",
        "pe"
      ],
      [
        "r",
        "a"
      ],
      [
        "a",
        "ction"
      ],
      [
        "c",
        "ted"
      ],
      [
        "ti",
        "me"
      ],
      [
        "res",
        "ource"
      ],
      [
        "expe",
        "cted"
      ],
      [
        "o",
        "d"
      ],
      [
        "p",
        "o"
      ],
      [
        "Ġ",
        "s"
      ],
      [
        "s",
        "t"
      ],
      [
        "Ġ",
        "f"
      ],
      [
        "t",
        "a"
      ],
      [
        "in",
        "g"
      ],
      [
        "y",
        "n"
      ],
      [
        "od",
        "e"
      ],
      [
        "u",
        "t"
      ],
      [
        "Ġ",
        "c"
      ],
      [
        "e",
        "t"
      ],
      [
        "s",
        "e"
      ],
      [
        "p",
        "ut"
      ],
      [
        "v",
        "e"
      ],
      [
        "R",
        "e"
      ],
      [
        "th",
        "e"
      ],
      [
        "i",
        "le"
      ],
      [
        "C",
        "P"
      ],
      [
        "ti",
        "c"
      ],
      [
        "yn",
        "the"
      ],
      [
        "ynthe",
        "tic"
      ],
      [
        "a",
        "l"
      ],
      [
        "h",
        "a"
      ],
      [
        "Ġa",
        "nd"
      ],
      [
        "Ġ",
        "re"
      ],
      [
        "i",
        "s"
      ],
      [
        "CP",
        "U"
      ],
      [
        "i",
        "t"
      ],
      [
        "o",
        "m"
      ],
      [
        "p",
        "y"
      ],
      [
        "z",
        "e"
      ],
      [
        "e",
        "c"
      ],
      [
        "m",
        "p"
      ],
      [
        "Ġ",
        "3"
      ],
      [
        "e",
        "n"
      ],
      [
        "r",
        "u"
      ],
      [
        "Ġf",
        "or"
      ],
      [
        "d",
        "a"
      ],
      [
        "c",
        "ra"
      ],
      [
        "Ġ",
        "th"
      ],
      [
        "n",
        "i"
      ],
      [
        "Ġc",
        "ode"
      ],
      [
        "q",
        "u"
      ],
      [
        "u",
        "b"
      ],
      [
        ":",
        "\\"
      ],
      [
        "da",
        "ta"
      ],
      [
        "n",
        "al"
      ],
      [
        "y",
        "ze"
      ],
      [
        "Ġ",
        "["
      ],
      [
        "st",
        "ru"
      ],
      [
        "nal",
        "yze"
      ],
      [
        "c",
        "k"
      ],
      [
        "g",
        "i"
      ],
      [
        "e",
        "nd"
      ],
      [
        "o",
        "pe"
      ],
      [
        "ra",
        "tion"
      ],
      [
        "qu",
        "e"
      ],
      [
        "s",
        "cra"
      ],
      [
        "th",
        "ub"
      ],
      [
        "gi",
        "thub"
      ],
      [
        "Ġth",
        "is"
      ],
      [
        "ope",
        "ration"
      ],
      [
        "l",
        "o"
      ],
      [
        "ou",
        "t"
      ],
      [
        "Ġ",
        "]"
      ],
      [
        "ck",
        "et"
      ],
      [
        "l",
        "ing"
      ],
      [
        "po",
        "s"
      ],
      [
        "C",
        "ode"
      ],
      [
        "D",
        "ec"
      ],
      [
        "Ġ",
        "1"
      ],
      [
        "in",
        "put"
      ],
      [
        "in",
        "stru"
      ],
      [
        "step",
        "s"
      ],
      [
        "po",
        "se"
      ],
      [
        "om",
        "pose"
      ],
      [
        "out",
        "put"
      ],
      [
        "Dec",
        "ompose"
      ],
      [
        "instru",
        "ction"
      ],
      [
        "or",
        "y"
      ],
      [
        "\\",
        "\""
      ],
      [
        "n",
        "F"
      ],
      [
        "s",
        "ource"
      ],
      [
        "pos",
        "it"
      ],
      [
        "n",
        "Code"
      ],
      [
        "p",
        "ling"
      ],
      [
        "Ġ",
        "res"
      ],
      [
        "me",
        "ta"
      ],
      [
        "Ġa",
        "nalyze"
      ],
      [
        "Re",
        "posit"
      ],
      [
        "scra",
        "pling"
      ],
      [
        "nF",
        "ile"
      ],
      [
        "meta",
        "data"
      ],
      [
        "Reposit",
        "ory"
      ],
      [
        "p",
        "a"
      ],
      [
        "S",
        "end"
      ],
      [
        "mp",
        "le"
      ],
      [
        "w",
        "or"
      ],
      [
        "que",
        "st"
      ],
      [
        "wor",
        "k"
      ],
      [
        "Ġ",
        "2"
      ],
      [
        "E",
        "x"
      ],
      [
        "k",
        "e"
      ],
      [
        "od",
        "u"
      ],
      [
        "a",
        "mple"
      ],
      [
        "p",
        "pe"
      ],
      [
        "Ġf",
        "ile"
      ],
      [
        "Ex",
        "ample"
      ],
      [
        "m",
        "odu"
      ],
      [
        "et",
        "work"
      ],
      [
        "modu",
        "le"
      ],
      [
        "i",
        "ve"
      ],
      [
        "s",
        "ynthetic"
      ],
      [
        "Ġ",
        "Example"
      ],
      [
        "Ġs",
        "ynthetic"
      ],
      [
        "Ġs",
        "ni"
      ],
      [
        "Ġre",
        "po"
      ],
      [
        "ppe",
        "t"
      ],
      [
        "Ġsni",
        "ppet"
      ],
      [
        "e",
        "r"
      ],
      [
        "l",
        "i"
      ],
      [
        "s",
        "ha"
      ],
      [
        "nd",
        "sha"
      ],
      [
        "ndsha",
        "ke"
      ],
      [
        "Ġ",
        "t"
      ],
      [
        "ve",
        "r"
      ],
      [
        "r",
        "o"
      ],
      [
        "u",
        "p"
      ],
      [
        "t",
        "p"
      ],
      [
        "t",
        "tp"
      ],
      [
        "Ġ",
        "pa"
      ],
      [
        "Ġ",
        "S"
      ],
      [
        "ce",
        "ive"
      ],
      [
        "w",
        "a"
      ],
      [
        "etwork",
        "ing"
      ],
      [
        "Ġ",
        "H"
      ],
      [
        "s",
        "yn"
      ],
      [
        "syn",
        "c"
      ],
      [
        "N",
        "S"
      ],
      [
        "Ġc",
        "on"
      ],
      [
        "p",
        "on"
      ],
      [
        "ha",
        "ndshake"
      ],
      [
        "Ġres",
        "pon"
      ],
      [
        "Ġrespon",
        "se"
      ],
      [
        "=",
        "="
      ],
      [
        "h",
        "ttp"
      ],
      [
        "Ġ",
        "T"
      ],
      [
        "-",
        "-"
      ],
      [
        "D",
        "NS"
      ],
      [
        "o",
        "k"
      ],
      [
        "o",
        "cket"
      ],
      [
        "Ġ",
        "A"
      ],
      [
        "Re",
        "ceive"
      ],
      [
        "ok",
        "up"
      ],
      [
        "a",
        "te"
      ],
      [
        "n",
        "e"
      ],
      [
        "Ġ",
        "o"
      ],
      [
        "quest",
        "s"
      ],
      [
        "wa",
        "y"
      ],
      [
        "Ġ",
        "C"
      ],
      [
        "Ġ",
        "N"
      ],
      [
        "Ġpa",
        "cket"
      ],
      [
        "Ġt",
        "o"
      ],
      [
        "P",
        "ro"
      ],
      [
        "Ġ",
        "4"
      ],
      [
        "Ġ",
        "b"
      ],
      [
        "o",
        "l"
      ],
      [
        "g",
        "ra"
      ],
      [
        "u",
        "r"
      ],
      [
        "Ġre",
        "quest"
      ],
      [
        "en",
        "t"
      ],
      [
        "Ġ",
        "n"
      ],
      [
        "li",
        "ent"
      ],
      [
        "ĠN",
        "etworking"
      ],
      [
        "Ġ",
        "d"
      ],
      [
        "Ġ",
        "DNS"
      ],
      [
        "Ġcon",
        "ne"
      ],
      [
        "Ġconne",
        "ction"
      ],
      [
        "m",
        "m"
      ],
      [
        "gra",
        "mm"
      ],
      [
        "gramm",
        "ing"
      ],
      [
        "r",
        "i"
      ],
      [
        "Ġa",
        "sync"
      ],
      [
        "en",
        "e"
      ],
      [
        "ene",
        "ra"
      ],
      [
        "s",
        "s"
      ],
      [
        ".",
        "."
      ],
      [
        "enera",
        "l"
      ],
      [
        "p",
        "i"
      ],
      [
        "or",
        "t"
      ],
      [
        "e",
        "l"
      ],
      [
        "C",
        "K"
      ],
      [
        "T",
        "P"
      ],
      [
        "T",
        "TP"
      ],
      [
        "n",
        "t"
      ],
      [
        "Y",
        "N"
      ],
      [
        "a",
        "d"
      ],
      [
        "Ġ",
        "in"
      ],
      [
        "Ġ",
        "handshake"
      ],
      [
        "ĠS",
        "YN"
      ],
      [
        "f",
        "i"
      ],
      [
        "Ġ",
        "L"
      ],
      [
        "ĠC",
        "lient"
      ],
      [
        "Ġ",
        "Re"
      ],
      [
        "Ġs",
        "ocket"
      ],
      [
        "ĠH",
        "TTP"
      ],
      [
        "Ġo",
        "f"
      ],
      [
        "Ġres",
        "ol"
      ],
      [
        "ĠT",
        "CP"
      ],
      [
        ".",
        "\\"
      ],
      [
        "g",
        "e"
      ],
      [
        "h",
        "e"
      ],
      [
        "o",
        "okup"
      ],
      [
        "ce",
        "r"
      ],
      [
        "ĠL",
        "ookup"
      ],
      [
        "Ġresol",
        "ver"
      ],
      [
        "=",
        "\\\""
      ],
      [
        "Ġ",
        "5"
      ],
      [
        "lo",
        "okup"
      ],
      [
        "fi",
        "c"
      ],
      [
        ")",
        "\\"
      ],
      [
        ":",
        "/"
      ],
      [
        "Ġ",
        "Pro"
      ],
      [
        "Ġ",
        "cer"
      ],
      [
        "==",
        "=="
      ],
      [
        "http",
        "s"
      ],
      [
        "ĠRe",
        "quests"
      ],
      [
        "ĠPro",
        "gramming"
      ],
      [
        "a",
        "r"
      ],
      [
        "p",
        "ro"
      ],
      [
        "ti",
        "fic"
      ],
      [
        "mp",
        "ort"
      ],
      [
        "lo",
        "w"
      ],
      [
        "er",
        "ver"
      ],
      [
        "li",
        "b"
      ],
      [
        ":/",
        "/"
      ],
      [
        "Ġcer",
        "tific"
      ],
      [
        "Ġcertific",
        "ate"
      ],
      [
        "C",
        "re"
      ],
      [
        "H",
        "el"
      ],
      [
        "L",
        "S"
      ],
      [
        "a",
        "ndshake"
      ],
      [
        "n",
        "etworking"
      ],
      [
        "ĠH",
        "andshake"
      ],
      [
        "Cre",
        "ate"
      ],
      [
        "Hel",
        "lo"
      ],
      [
        "Ġ",
        "i"
      ],
      [
        "ce",
        "ss"
      ],
      [
        "2",
        "0"
      ],
      [
        "G",
        "eneral"
      ],
      [
        "c",
        "t"
      ],
      [
        "Ġ",
        "g"
      ],
      [
        "Ġ",
        "\\\""
      ],
      [
        "it",
        "y"
      ],
      [
        "er",
        "s"
      ],
      [
        "--",
        "--"
      ],
      [
        "i",
        "on"
      ],
      [
        "m",
        "a"
      ],
      [
        "Ġ",
        "w"
      ],
      [
        "th",
        "on"
      ],
      [
        "Ġn",
        "etwork"
      ],
      [
        "3",
        "0"
      ],
      [
        "u",
        "l"
      ],
      [
        "Ġ",
        "P"
      ],
      [
        "Ġ",
        "e"
      ],
      [
        "te",
        "st"
      ],
      [
        "Pro",
        "cess"
      ],
      [
        "3",
        "2"
      ],
      [
        "4",
        "6"
      ],
      [
        "O",
        "N"
      ],
      [
        "c",
        "ce"
      ],
      [
        "Ġ",
        "ex"
      ],
      [
        "Ġ",
        "the"
      ],
      [
        "cce",
        "p"
      ],
      [
        ">",
        ">"
      ],
      [
        "R",
        "E"
      ],
      [
        "a",
        "b"
      ],
      [
        "c",
        "om"
      ],
      [
        "i",
        "f"
      ],
      [
        "r",
        "y"
      ],
      [
        "Ġ",
        "="
      ],
      [
        "te",
        "r"
      ],
      [
        "1",
        "8"
      ],
      [
        "1",
        "9"
      ],
      [
        ">",
        "\\"
      ],
      [
        "l",
        "lib"
      ],
      [
        "u",
        "tion"
      ],
      [
        "y",
        "s"
      ],
      [
        "in",
        "t"
      ],
      [
        "ur",
        "llib"
      ],
      [
        "ĠClient",
        "s"
      ],
      [
        "*",
        "*"
      ],
      [
        "2",
        "5"
      ],
      [
        "d",
        "d"
      ],
      [
        "l",
        "s"
      ],
      [
        "r",
        "om"
      ],
      [
        "in",
        "al"
      ],
      [
        "res",
        "s"
      ],
      [
        "A",
        "CK"
      ],
      [
        "T",
        "CP"
      ],
      [
        "\\",
        "\","
      ],
      [
        "s",
        "ive"
      ],
      [
        "v",
        "i"
      ],
      [
        "re",
        "quests"
      ],
      [
        "in",
        "d"
      ],
      [
        "Ġf",
        "inal"
      ],
      [
        "que",
        "ry"
      ],
      [
        "ĠA",
        "CK"
      ],
      [
        "..",
        "."
      ],
      [
        "if",
        "y"
      ],
      [
        "2",
        "4"
      ],
      [
        "3",
        "8"
      ],
      [
        "c",
        "p"
      ],
      [
        "i",
        "ste"
      ],
      [
        "Ġ",
        "p"
      ],
      [
        "Ġ",
        "data"
      ],
      [
        "Ġ",
        "he"
      ],
      [
        "Ġa",
        "dd"
      ],
      [
        "Ġt",
        "cp"
      ],
      [
        "Ġb",
        "od"
      ],
      [
        "ri",
        "b"
      ],
      [
        "3",
        "7"
      ],
      [
        "A",
        "nalyze"
      ],
      [
        "A",
        "ccep"
      ],
      [
        "B",
        "ind"
      ],
      [
        "D",
        "e"
      ],
      [
        "L",
        "iste"
      ],
      [
        "S",
        "ocket"
      ],
      [
        "c",
        "ur"
      ],
      [
        "d",
        "e"
      ],
      [
        "i",
        "ze"
      ],
      [
        "y",
        "thon"
      ],
      [
        "Ġ",
        "http"
      ],
      [
        "Ġ",
        "query"
      ],
      [
        "re",
        "ceive"
      ],
      [
        "in",
        "e"
      ],
      [
        "Ġf",
        "low"
      ],
      [
        "ec",
        "ution"
      ],
      [
        "Ġn",
        "o"
      ],
      [
        "ad",
        "ers"
      ],
      [
        "pro",
        "gramming"
      ],
      [
        "Ġi",
        "mport"
      ],
      [
        "Ġg",
        "eneral"
      ],
      [
        "Ġex",
        "ecution"
      ],
      [
        "Ġadd",
        "ress"
      ],
      [
        "Ġbod",
        "y"
      ],
      [
        "Accep",
        "t"
      ],
      [
        "Liste",
        "n"
      ],
      [
        "2",
        "8"
      ],
      [
        "2",
        "9"
      ],
      [
        "3",
        "5"
      ],
      [
        "A",
        "sync"
      ],
      [
        "a",
        "t"
      ],
      [
        "i",
        "l"
      ],
      [
        "l",
        "is"
      ],
      [
        "o",
        "c"
      ],
      [
        "o",
        "p"
      ],
      [
        "Ġ",
        "or"
      ],
      [
        "Ġ",
        "lookup"
      ],
      [
        "Re",
        "cur"
      ],
      [
        "lis",
        "h"
      ],
      [
        "Recur",
        "sive"
      ],
      [
        "1",
        "1"
      ],
      [
        "2",
        "7"
      ],
      [
        "3",
        "6"
      ],
      [
        "n",
        "g"
      ],
      [
        "u",
        "n"
      ],
      [
        "me",
        "nt"
      ],
      [
        "lo",
        "ad"
      ],
      [
        "pa",
        "re"
      ],
      [
        "Ġd",
        "ns"
      ],
      [
        "\\\",",
        "\\"
      ],
      [
        "...",
        "\","
      ],
      [
        ",",
        "\\"
      ],
      [
        "<",
        "/"
      ],
      [
        "E",
        "st"
      ],
      [
        "H",
        "ttp"
      ],
      [
        "P",
        "I"
      ],
      [
        "P",
        "re"
      ],
      [
        "P",
        "ar"
      ],
      [
        "T",
        "LS"
      ],
      [
        "V",
        "er"
      ],
      [
        "i",
        "o"
      ],
      [
        "t",
        "rib"
      ],
      [
        "Ġ",
        "is"
      ],
      [
        "Ġ",
        "end"
      ],
      [
        "po",
        "int"
      ],
      [
        "Ġs",
        "erver"
      ],
      [
        "Ġs",
        "ys"
      ],
      [
        "up",
        "p"
      ],
      [
        "ĠS",
        "erver"
      ],
      [
        "ĠT",
        "LS"
      ],
      [
        "ĠClient",
        "Hello"
      ],
      [
        "ab",
        "lish"
      ],
      [
        "Ġhe",
        "aders"
      ],
      [
        "Est",
        "ablish"
      ],
      [
        "Pre",
        "pare"
      ],
      [
        "Par",
        "se"
      ],
      [
        "Ver",
        "ify"
      ],
      [
        "ĠServer",
        "Hello"
      ],
      [
        "#",
        "#"
      ],
      [
        "1",
        "7"
      ],
      [
        "2",
        "6"
      ],
      [
        "4",
        "4"
      ],
      [
        "4",
        "7"
      ],
      [
        "i",
        "m"
      ],
      [
        "m",
        "d"
      ],
      [
        "Ġ",
        "<"
      ],
      [
        "Ġ",
        "h"
      ],
      [
        "Ġ",
        "u"
      ],
      [
        "al",
        "ize"
      ],
      [
        "Ġt",
        "ls"
      ],
      [
        "ĠS",
        "ocket"
      ],
      [
        "ĠA",
        "PI"
      ],
      [
        "ul",
        "t"
      ],
      [
        "ĠP",
        "ython"
      ],
      [
        "test",
        "s"
      ],
      [
        "im",
        "g"
      ],
      [
        "(",
        "\\\""
      ],
      [
        "C",
        "on"
      ],
      [
        "J",
        "S"
      ],
      [
        "a",
        "se"
      ],
      [
        "f",
        "rom"
      ],
      [
        "i",
        "st"
      ],
      [
        "l",
        "y"
      ],
      [
        "n",
        "from"
      ],
      [
        "Ġ",
        "("
      ],
      [
        "Ġ",
        "lo"
      ],
      [
        "Ġ",
        "ma"
      ],
      [
        "ti",
        "ng"
      ],
      [
        "tion",
        "s"
      ],
      [
        "ve",
        "nt"
      ],
      [
        "scra",
        "py"
      ],
      [
        "Ġb",
        "e"
      ],
      [
        "Ġd",
        "e"
      ],
      [
        "====",
        "===="
      ],
      [
        "ter",
        "s"
      ],
      [
        "JS",
        "ON"
      ],
      [
        "1",
        "5"
      ],
      [
        "3",
        "4"
      ],
      [
        "A",
        "wa"
      ],
      [
        "A",
        "pi"
      ],
      [
        "I",
        "ni"
      ],
      [
        "c",
        "l"
      ],
      [
        "c",
        "lient"
      ],
      [
        "e",
        "d"
      ],
      [
        "f",
        "ine"
      ],
      [
        "n",
        "a"
      ],
      [
        "r",
        "c"
      ],
      [
        "r",
        "on"
      ],
      [
        "s",
        "k"
      ],
      [
        "s",
        "ion"
      ],
      [
        "y",
        "load"
      ],
      [
        "Ġ",
        "#"
      ],
      [
        "Ġ",
        "`"
      ],
      [
        "Ġ",
        "expe"
      ],
      [
        "Ġ",
        "ta"
      ],
      [
        "Ġ",
        "JSON"
      ],
      [
        "ti",
        "alize"
      ],
      [
        "me",
        "ters"
      ],
      [
        "Ġa",
        "pi"
      ],
      [
        "ra",
        "meters"
      ],
      [
        "en",
        "c"
      ],
      [
        "en",
        "ce"
      ],
      [
        "ni",
        "mport"
      ],
      [
        "stru",
        "ct"
      ],
      [
        "Ġres",
        "ult"
      ],
      [
        "Ġpa",
        "yload"
      ],
      [
        "Ġpa",
        "rameters"
      ],
      [
        "ĠA",
        "sync"
      ],
      [
        "Ġo",
        "ver"
      ],
      [
        "ri",
        "ence"
      ],
      [
        "Ġe",
        "vent"
      ],
      [
        ">>",
        ">"
      ],
      [
        "De",
        "fine"
      ],
      [
        "Ġend",
        "point"
      ],
      [
        "Con",
        "struct"
      ],
      [
        "Ġlo",
        "op"
      ],
      [
        "Awa",
        "it"
      ],
      [
        "Ini",
        "tialize"
      ],
      [
        "client",
        "s"
      ],
      [
        "Ġexpe",
        "rience"
      ],
      [
        "Ġta",
        "sk"
      ],
      [
        "1",
        "0"
      ],
      [
        "1",
        "4"
      ],
      [
        "3",
        "9"
      ],
      [
        "4",
        "0"
      ],
      [
        "4",
        "5"
      ],
      [
        "D",
        "E"
      ],
      [
        "T",
        "E"
      ],
      [
        "`",
        "`"
      ],
      [
        "c",
        "a"
      ],
      [
        "d",
        "er"
      ],
      [
        "m",
        "un"
      ],
      [
        "Ġ",
        "O"
      ],
      [
        "Ġ",
        "m"
      ],
      [
        "Ġ",
        "General"
      ],
      [
        "re",
        "f"
      ],
      [
        "Ġa",
        "l"
      ],
      [
        "Ġs",
        "upp"
      ],
      [
        "ta",
        "tion"
      ],
      [
        "ver",
        "sion"
      ],
      [
        "ĠH",
        "ttp"
      ],
      [
        "Ġcon",
        "trib"
      ],
      [
        "ĠA",
        "pi"
      ],
      [
        "mun",
        "ity"
      ],
      [
        "d",
        "s"
      ],
      [
        "o",
        "ve"
      ],
      [
        "u",
        "s"
      ],
      [
        "Ġ",
        "F"
      ],
      [
        "Ġ",
        "I"
      ],
      [
        "Ġ",
        "r"
      ],
      [
        "Ġ",
        "y"
      ],
      [
        "Ġ",
        "our"
      ],
      [
        "Ġ",
        "le"
      ],
      [
        "Ġ",
        "ha"
      ],
      [
        "or",
        "g"
      ],
      [
        "Ġs",
        "et"
      ],
      [
        "Ġc",
        "om"
      ],
      [
        "Ġth",
        "at"
      ],
      [
        "http",
        "x"
      ],
      [
        "Ġin",
        "cl"
      ],
      [
        "----",
        "----"
      ],
      [
        "Ġh",
        "ref"
      ],
      [
        "Ġsupp",
        "ort"
      ],
      [
        "Ġincl",
        "u"
      ],
      [
        "1",
        "3"
      ],
      [
        "1",
        "6"
      ],
      [
        "4",
        "9"
      ],
      [
        "]",
        "("
      ],
      [
        "d",
        "ge"
      ],
      [
        "h",
        "t"
      ],
      [
        "l",
        "l"
      ],
      [
        "p",
        "re"
      ],
      [
        "t",
        "r"
      ],
      [
        "t",
        "y"
      ],
      [
        "Ġ",
        "/"
      ],
      [
        "Ġ",
        "|"
      ],
      [
        "Ġ",
        "pe"
      ],
      [
        "le",
        "dge"
      ],
      [
        "Ġs",
        "rc"
      ],
      [
        "py",
        "thon"
      ],
      [
        "en",
        "vi"
      ],
      [
        "\\\"",
        ">\\"
      ],
      [
        "Ġb",
        "y"
      ],
      [
        "oc",
        "s"
      ],
      [
        "Ġu",
        "se"
      ],
      [
        "enc",
        "ode"
      ],
      [
        "Ġal",
        "t"
      ],
      [
        "envi",
        "ron"
      ],
      [
        "1",
        "2"
      ],
      [
        "7",
        "1"
      ],
      [
        ">",
        "<"
      ],
      [
        ">",
        "</"
      ],
      [
        "H",
        "E"
      ],
      [
        "P",
        "Y"
      ],
      [
        "S",
        "E"
      ],
      [
        "T",
        "H"
      ],
      [
        "U",
        "R"
      ],
      [
        "a",
        "th"
      ],
      [
        "c",
        "on"
      ],
      [
        "d",
        "en"
      ],
      [
        "e",
        "s"
      ],
      [
        "g",
        "n"
      ],
      [
        "o",
        "w"
      ],
      [
        "o",
        "ol"
      ],
      [
        "r",
        "s"
      ],
      [
        "Ġ",
        "it"
      ],
      [
        "ti",
        "ve"
      ],
      [
        "me",
        "n"
      ],
      [
        "Ġa",
        "n"
      ],
      [
        "Ġs",
        "ex"
      ],
      [
        "Ġf",
        "rom"
      ],
      [
        "ut",
        "or"
      ],
      [
        "Ġc",
        "ha"
      ],
      [
        "ru",
        "e"
      ],
      [
        "cra",
        "py"
      ],
      [
        "ni",
        "f"
      ],
      [
        "\\\"",
        ")"
      ],
      [
        "\\\"",
        "><"
      ],
      [
        "ĠT",
        "he"
      ],
      [
        "Ġo",
        "s"
      ],
      [
        "il",
        "ity"
      ],
      [
        "Ġset",
        "up"
      ],
      [
        "pre",
        "ca"
      ],
      [
        "den",
        "ti"
      ],
      [
        "2",
        "3"
      ],
      [
        "9",
        "7"
      ],
      [
        "H",
        "TTP"
      ],
      [
        "M",
        "E"
      ],
      [
        "N",
        "T"
      ],
      [
        "]",
        "\\"
      ],
      [
        "_",
        "_"
      ],
      [
        "b",
        "le"
      ],
      [
        "c",
        "h"
      ],
      [
        "d",
        "ocs"
      ],
      [
        "f",
        "ile"
      ],
      [
        "f",
        "ul"
      ],
      [
        "g",
        "ht"
      ],
      [
        "m",
        "b"
      ],
      [
        "n",
        "ge"
      ],
      [
        "s",
        "u"
      ],
      [
        "s",
        "v"
      ],
      [
        "w",
        "w"
      ],
      [
        "w",
        "le"
      ],
      [
        "Ġ",
        "G"
      ],
      [
        "Ġ",
        "on"
      ],
      [
        "Ġ",
        "me"
      ],
      [
        "Ġ",
        "ra"
      ],
      [
        "Ġ",
        "operation"
      ],
      [
        "Ġ",
        "up"
      ],
      [
        "Ġ",
        "pro"
      ],
      [
        "Ġ",
        "tests"
      ],
      [
        "Ġ",
        "version"
      ],
      [
        "te",
        "s"
      ],
      [
        "le",
        "ase"
      ],
      [
        "Ġs",
        "tr"
      ],
      [
        "Ġs",
        "crapy"
      ],
      [
        "Ġf",
        "ol"
      ],
      [
        "ta",
        "in"
      ],
      [
        "the",
        "r"
      ],
      [
        "Ġre",
        "quests"
      ],
      [
        "qu",
        "i"
      ],
      [
        "wa",
        "r"
      ],
      [
        "ĠC",
        "on"
      ],
      [
        "low",
        "ing"
      ],
      [
        "Ġw",
        "i"
      ],
      [
        "ĠO",
        "ur"
      ],
      [
        "Ġcontrib",
        "u"
      ],
      [
        "Ġinclu",
        "de"
      ],
      [
        "PY",
        "TH"
      ],
      [
        "men",
        "tation"
      ],
      [
        "denti",
        "ty"
      ],
      [
        "sv",
        "g"
      ],
      [
        "wle",
        "r"
      ],
      [
        "Ġfol",
        "lowing"
      ],
      [
        "PYTH",
        "ON"
      ],
      [
        "(",
        "\\"
      ],
      [
        "0",
        "0"
      ],
      [
        "2",
        "25"
      ],
      [
        "4",
        "8"
      ],
      [
        "5",
        "5"
      ],
      [
        "5",
        "9"
      ],
      [
        "7",
        "7"
      ],
      [
        "9",
        "5"
      ],
      [
        "I",
        "O"
      ],
      [
        "I",
        "T"
      ],
      [
        "N",
        "G"
      ],
      [
        "P",
        "S"
      ],
      [
        "S",
        "Y"
      ],
      [
        "S",
        "TE"
      ],
      [
        "U",
        "SE"
      ],
      [
        "W",
        "e"
      ],
      [
        "a",
        "n"
      ],
      [
        "a",
        "ge"
      ],
      [
        "b",
        "ad"
      ],
      [
        "c",
        "or"
      ],
      [
        "d",
        "u"
      ],
      [
        "d",
        "ist"
      ],
      [
        "f",
        "o"
      ],
      [
        "f",
        "low"
      ],
      [
        "g",
        "et"
      ],
      [
        "h",
        "i"
      ],
      [
        "j",
        "ec"
      ],
      [
        "n",
        "I"
      ],
      [
        "n",
        "ter"
      ],
      [
        "n",
        "We"
      ],
      [
        "s",
        "i"
      ],
      [
        "u",
        "re"
      ],
      [
        "u",
        "al"
      ],
      [
        "v",
        "is"
      ],
      [
        "Ġ",
        "B"
      ],
      [
        "Ġ",
        "D"
      ],
      [
        "Ġ",
        "V"
      ],
      [
        "Ġ",
        "li"
      ],
      [
        "Ġ",
        "ne"
      ],
      [
        "Ġ",
        "environ"
      ],
      [
        "on",
        "e"
      ],
      [
        "ce",
        "nter"
      ],
      [
        "Ġa",
        "s"
      ],
      [
        "Ġa",
        "li"
      ],
      [
        "ra",
        "n"
      ],
      [
        "Ġs",
        "h"
      ],
      [
        "st",
        "al"
      ],
      [
        "Ġf",
        "e"
      ],
      [
        "Ġc",
        "ase"
      ],
      [
        "se",
        "r"
      ],
      [
        "py",
        "pi"
      ],
      [
        "work",
        "flow"
      ],
      [
        "ver",
        "ify"
      ],
      [
        "ĠS",
        "ta"
      ],
      [
        "--",
        "-"
      ],
      [
        "Ġb",
        "ool"
      ],
      [
        "Ġd",
        "is"
      ],
      [
        "ri",
        "p"
      ],
      [
        "ri",
        "ght"
      ],
      [
        "Ġin",
        "te"
      ],
      [
        "Ġw",
        "il"
      ],
      [
        "ccep",
        "ting"
      ],
      [
        "com",
        "munity"
      ],
      [
        "**",
        "\\"
      ],
      [
        "Ġp",
        "r"
      ],
      [
        "Ġp",
        "ledge"
      ],
      [
        "DE",
        "PS"
      ],
      [
        "``",
        "`"
      ],
      [
        "Ġy",
        "our"
      ],
      [
        "Ġcom",
        "munity"
      ],
      [
        "Ġ/",
        "></"
      ],
      [
        "Ġwi",
        "th"
      ],
      [
        "SY",
        "STE"
      ],
      [
        "bad",
        "ge"
      ],
      [
        "cor",
        "d"
      ],
      [
        "jec",
        "t"
      ],
      [
        "Ġenviron",
        "ment"
      ],
      [
        "Ġali",
        "gn"
      ],
      [
        "Ġwil",
        "l"
      ],
      [
        "SYSTE",
        "M"
      ],
      [
        "(",
        ")\\"
      ],
      [
        "1",
        "46"
      ],
      [
        "2",
        "2"
      ],
      [
        "2",
        "37"
      ],
      [
        "3",
        "30"
      ],
      [
        "5",
        "3"
      ],
      [
        "5",
        "6"
      ],
      [
        "6",
        "7"
      ],
      [
        "6",
        "8"
      ],
      [
        "7",
        "4"
      ],
      [
        "7",
        "9"
      ],
      [
        "8",
        "1"
      ],
      [
        "8",
        "6"
      ],
      [
        "9",
        "0"
      ],
      [
        "9",
        "1"
      ],
      [
        "9",
        "2"
      ],
      [
        ">",
        "="
      ],
      [
        "A",
        "D"
      ],
      [
        "A",
        "R"
      ],
      [
        "C",
        "ra"
      ],
      [
        "E",
        "X"
      ],
      [
        "I",
        "E"
      ],
      [
        "I",
        "NG"
      ],
      [
        "O",
        "F"
      ],
      [
        "P",
        "O"
      ],
      [
        "U",
        "T"
      ],
      [
        "\\",
        "\":"
      ],
      [
        "a",
        "ck"
      ],
      [
        "b",
        "ility"
      ],
      [
        "c",
        "i"
      ],
      [
        "c",
        "rip"
      ],
      [
        "e",
        "ss"
      ],
      [
        "g",
        "u"
      ],
      [
        "i",
        "d"
      ],
      [
        "i",
        "pa"
      ],
      [
        "i",
        "ble"
      ],
      [
        "l",
        "a"
      ],
      [
        "m",
        "l"
      ],
      [
        "n",
        "T"
      ],
      [
        "n",
        "o"
      ],
      [
        "n",
        "Re"
      ],
      [
        "n",
        "Example"
      ],
      [
        "n",
        "community"
      ],
      [
        "o",
        "py"
      ],
      [
        "o",
        "ck"
      ],
      [
        "r",
        "tic"
      ],
      [
        "s",
        "ing"
      ],
      [
        "s",
        "ys"
      ],
      [
        "s",
        "hi"
      ],
      [
        "t",
        "ra"
      ],
      [
        "t",
        "us"
      ],
      [
        "u",
        "ti"
      ],
      [
        "u",
        "st"
      ],
      [
        "Ġ",
        "*"
      ],
      [
        "Ġ",
        "\\"
      ],
      [
        "Ġ",
        "py"
      ],
      [
        "Ġ",
        "ope"
      ],
      [
        "Ġ",
        "test"
      ],
      [
        "Ġ",
        "RE"
      ],
      [
        "on",
        "al"
      ],
      [
        "pe",
        "nd"
      ],
      [
        "in",
        "fo"
      ],
      [
        "th",
        "lib"
      ],
      [
        "or",
        "ted"
      ],
      [
        "Ġa",
        "b"
      ],
      [
        "Ġa",
        "r"
      ],
      [
        "Ġa",
        "re"
      ],
      [
        "nd",
        "ar"
      ],
      [
        "action",
        "s"
      ],
      [
        "Ġs",
        "ta"
      ],
      [
        "st",
        "der"
      ],
      [
        "Ġc",
        "lient"
      ],
      [
        "ve",
        "l"
      ],
      [
        "al",
        "se"
      ],
      [
        "ha",
        "vi"
      ],
      [
        "Ġre",
        "p"
      ],
      [
        "Ġre",
        "qui"
      ],
      [
        "is",
        "cord"
      ],
      [
        "en",
        "tation"
      ],
      [
        "mple",
        "mentation"
      ],
      [
        "Ġpa",
        "rtic"
      ],
      [
        "Ġpa",
        "thlib"
      ],
      [
        "ĠA",
        "N"
      ],
      [
        "Ġo",
        "ther"
      ],
      [
        "ĠC",
        "O"
      ],
      [
        "ĠN",
        "O"
      ],
      [
        "Ġto",
        "war"
      ],
      [
        "Ġb",
        "ut"
      ],
      [
        "el",
        "com"
      ],
      [
        "el",
        "ds"
      ],
      [
        "ers",
        "ion"
      ],
      [
        "Ġw",
        "elcom"
      ],
      [
        "19",
        "9"
      ],
      [
        "25",
        "5"
      ],
      [
        "rib",
        "ution"
      ],
      [
        "Ġno",
        "t"
      ],
      [
        "Ġno",
        "x"
      ],
      [
        "Async",
        "Cra"
      ],
      [
        "Ġor",
        "i"
      ],
      [
        "ment",
        "s"
      ],
      [
        "Ġis",
        "su"
      ],
      [
        "47",
        "3"
      ],
      [
        "Ġma",
        "y"
      ],
      [
        "Ġbe",
        "havi"
      ],
      [
        "Ġde",
        "preca"
      ],
      [
        "========",
        "========"
      ],
      [
        "Ġcontrib",
        "utor"
      ],
      [
        "Ġ|",
        "\\"
      ],
      [
        "Ġpe",
        "rs"
      ],
      [
        "Ġit",
        "s"
      ],
      [
        "Ġsex",
        "ual"
      ],
      [
        "Ġstr",
        "ing"
      ],
      [
        "vis",
        "ible"
      ],
      [
        "ĠV",
        "ersion"
      ],
      [
        "stal",
        "l"
      ],
      [
        "---",
        "\\"
      ],
      [
        "Ġpr",
        "int"
      ],
      [
        "AD",
        "ME"
      ],
      [
        "ess",
        "ion"
      ],
      [
        "nExample",
        "s"
      ],
      [
        "opy",
        "right"
      ],
      [
        "shi",
        "elds"
      ],
      [
        "Ġope",
        "n"
      ],
      [
        "stder",
        "r"
      ],
      [
        "Ġpartic",
        "ipa"
      ],
      [
        "Ġwelcom",
        "ing"
      ],
      [
        "AsyncCra",
        "wler"
      ],
      [
        "Ġbehavi",
        "or"
      ],
      [
        "Ġcontributor",
        "s"
      ],
      [
        "Ġpers",
        "onal"
      ],
      [
        "'",
        "\\"
      ],
      [
        "(",
        "'"
      ],
      [
        ")",
        "."
      ],
      [
        ")",
        ":\\"
      ],
      [
        ")",
        ".\\"
      ],
      [
        ",",
        "<"
      ],
      [
        "1",
        "27"
      ],
      [
        "2",
        "1"
      ],
      [
        "3",
        "1"
      ],
      [
        "3",
        "19"
      ],
      [
        "4",
        "18"
      ],
      [
        "5",
        "2"
      ],
      [
        "5",
        "4"
      ],
      [
        "6",
        "1"
      ],
      [
        "6",
        "2"
      ],
      [
        "6",
        "3"
      ],
      [
        "6",
        "5"
      ],
      [
        "7",
        "0"
      ],
      [
        "7",
        "2"
      ],
      [
        "7",
        "3"
      ],
      [
        "7",
        "5"
      ],
      [
        "7",
        "8"
      ],
      [
        "8",
        "3"
      ],
      [
        "8",
        "7"
      ],
      [
        "8",
        "9"
      ],
      [
        "9",
        "3"
      ],
      [
        "9",
        "4"
      ],
      [
        "9",
        "6"
      ],
      [
        "9",
        "8"
      ],
      [
        "9",
        "9"
      ],
      [
        "A",
        "NT"
      ],
      [
        "C",
        "T"
      ],
      [
        "C",
        "ON"
      ],
      [
        "D",
        "U"
      ],
      [
        "I",
        "S"
      ],
      [
        "I",
        "RE"
      ],
      [
        "O",
        "R"
      ],
      [
        "Q",
        "U"
      ],
      [
        "R",
        "I"
      ],
      [
        "R",
        "un"
      ],
      [
        "S",
        "L"
      ],
      [
        "S",
        "S"
      ],
      [
        "S",
        "ynthetic"
      ],
      [
        "T",
        "rue"
      ],
      [
        "a",
        "u"
      ],
      [
        "a",
        "ted"
      ],
      [
        "a",
        "io"
      ],
      [
        "a",
        "ran"
      ],
      [
        "b",
        "ack"
      ],
      [
        "c",
        "ity"
      ],
      [
        "c",
        "tive"
      ],
      [
        "d",
        "i"
      ],
      [
        "d",
        "le"
      ],
      [
        "d",
        "iscord"
      ],
      [
        "e",
        "e"
      ],
      [
        "e",
        "w"
      ],
      [
        "e",
        "ing"
      ],
      [
        "f",
        "re"
      ],
      [
        "f",
        "er"
      ],
      [
        "g",
        "s"
      ],
      [
        "g",
        "ar"
      ],
      [
        "i",
        "te"
      ],
      [
        "i",
        "se"
      ],
      [
        "i",
        "ls"
      ],
      [
        "i",
        "es"
      ],
      [
        "i",
        "tive"
      ],
      [
        "j",
        "s"
      ],
      [
        "l",
        "ine"
      ],
      [
        "m",
        "on"
      ],
      [
        "n",
        "ing"
      ],
      [
        "n",
        "er"
      ],
      [
        "n",
        "load"
      ],
      [
        "o",
        "re"
      ],
      [
        "p",
        "in"
      ],
      [
        "p",
        "ress"
      ],
      [
        "t",
        "s"
      ],
      [
        "v",
        "ing"
      ],
      [
        "x",
        "t"
      ],
      [
        "y",
        "pe"
      ],
      [
        "y",
        "one"
      ],
      [
        "}",
        "."
      ],
      [
        "Ġ",
        "0"
      ],
      [
        "Ġ",
        "k"
      ],
      [
        "Ġ",
        "ru"
      ],
      [
        "Ġ",
        "pos"
      ],
      [
        "Ġ",
        "Code"
      ],
      [
        "Ġ",
        "https"
      ],
      [
        "Ġ",
        "urllib"
      ],
      [
        "Ġ",
        "**"
      ],
      [
        "Ġ",
        "vi"
      ],
      [
        "Ġ",
        "..."
      ],
      [
        "Ġ",
        "De"
      ],
      [
        "Ġ",
        "encode"
      ],
      [
        "te",
        "xt"
      ],
      [
        "re",
        "d"
      ],
      [
        "tion",
        "al"
      ],
      [
        "ce",
        "ful"
      ],
      [
        "pe",
        "ct"
      ],
      [
        "me",
        "r"
      ],
      [
        "th",
        "ni"
      ],
      [
        "ste",
        "r"
      ],
      [
        "Ġa",
        "ppe"
      ],
      [
        "Ġa",
        "ge"
      ],
      [
        "Ġa",
        "ccepting"
      ],
      [
        "ex",
        "it"
      ],
      [
        "nd",
        "e"
      ],
      [
        "ra",
        "ss"
      ],
      [
        "Ġs",
        "i"
      ],
      [
        "Ġs",
        "crip"
      ],
      [
        "Ġs",
        "ession"
      ],
      [
        "st",
        "r"
      ],
      [
        "ta",
        "ils"
      ],
      [
        "Ġc",
        "re"
      ],
      [
        "Ġc",
        "opyright"
      ],
      [
        "ha",
        "nge"
      ],
      [
        "Ġre",
        "t"
      ],
      [
        "Ġre",
        "li"
      ],
      [
        "Ġre",
        "gar"
      ],
      [
        "mp",
        "ath"
      ],
      [
        "Ġfor",
        "m"
      ],
      [
        "Ġth",
        "o"
      ],
      [
        "ni",
        "dentity"
      ],
      [
        "Ġ[",
        "\\"
      ],
      [
        "stru",
        "ctive"
      ],
      [
        "gi",
        "on"
      ],
      [
        "end",
        "er"
      ],
      [
        "lo",
        "g"
      ],
      [
        "\\\"",
        "\\\""
      ],
      [
        "\\\"",
        ")\\"
      ],
      [
        "Ġres",
        "pect"
      ],
      [
        "Ġ2",
        "0"
      ],
      [
        "ver",
        "yone"
      ],
      [
        "ĠS",
        "SL"
      ],
      [
        "NS",
        "IO"
      ],
      [
        "Ġcon",
        "tain"
      ],
      [
        "Ġcon",
        "di"
      ],
      [
        "Ġcon",
        "structive"
      ],
      [
        "ĠT",
        "rue"
      ],
      [
        "ĠC",
        "ove"
      ],
      [
        "ol",
        "der"
      ],
      [
        "Ġn",
        "a"
      ],
      [
        "Ġd",
        "if"
      ],
      [
        "Ġd",
        "oc"
      ],
      [
        "pro",
        "ject"
      ],
      [
        "Ġi",
        "dentity"
      ],
      [
        "20",
        "6"
      ],
      [
        "Ġg",
        "ender"
      ],
      [
        "ma",
        "in"
      ],
      [
        "30",
        "4"
      ],
      [
        "30",
        "9"
      ],
      [
        "ĠP",
        "ledge"
      ],
      [
        "ĠP",
        "ath"
      ],
      [
        "Ġe",
        "thni"
      ],
      [
        "Ġe",
        "mpath"
      ],
      [
        "Ġe",
        "veryone"
      ],
      [
        "32",
        "2"
      ],
      [
        "46",
        "0"
      ],
      [
        "46",
        "1"
      ],
      [
        "Ġex",
        "press"
      ],
      [
        "RE",
        "NT"
      ],
      [
        "ab",
        "ility"
      ],
      [
        "18",
        "5"
      ],
      [
        "vi",
        "de"
      ],
      [
        "38",
        "0"
      ],
      [
        "De",
        "preca"
      ],
      [
        "Ġhttp",
        "x"
      ],
      [
        "Ġno",
        "w"
      ],
      [
        "29",
        "6"
      ],
      [
        "at",
        "ure"
      ],
      [
        "11",
        "3"
      ],
      [
        "36",
        "3"
      ],
      [
        "trib",
        "utor"
      ],
      [
        "point",
        "s"
      ],
      [
        "upp",
        "orted"
      ],
      [
        "17",
        "9"
      ],
      [
        "44",
        "3"
      ],
      [
        "44",
        "8"
      ],
      [
        "Ġma",
        "ke"
      ],
      [
        "Ġde",
        "tails"
      ],
      [
        "15",
        "1"
      ],
      [
        "na",
        "me"
      ],
      [
        "na",
        "nt"
      ],
      [
        "ron",
        "g"
      ],
      [
        "Ġexperience",
        "s"
      ],
      [
        "10",
        "6"
      ],
      [
        "TE",
        "NSIO"
      ],
      [
        "ca",
        "tion"
      ],
      [
        "ĠI",
        "S"
      ],
      [
        "Ġy",
        "ou"
      ],
      [
        "Ġle",
        "vel"
      ],
      [
        "Ġha",
        "s"
      ],
      [
        "Ġha",
        "rass"
      ],
      [
        "--------",
        "--------"
      ],
      [
        "Ġinclu",
        "sive"
      ],
      [
        "ll",
        "http"
      ],
      [
        "HE",
        "RE"
      ],
      [
        "UR",
        "RENT"
      ],
      [
        "ow",
        "nload"
      ],
      [
        "Ġcha",
        "nge"
      ],
      [
        "\\\")",
        ")\\"
      ],
      [
        "HTTP",
        "X"
      ],
      [
        "file",
        "s"
      ],
      [
        "mb",
        "er"
      ],
      [
        "mb",
        "ers"
      ],
      [
        "ww",
        "w"
      ],
      [
        "Ġme",
        "mbers"
      ],
      [
        "Ġra",
        "ce"
      ],
      [
        "Ġra",
        "ise"
      ],
      [
        "Ġpro",
        "vide"
      ],
      [
        "ĠCon",
        "du"
      ],
      [
        "ĠCon",
        "tributor"
      ],
      [
        "Ġcontribu",
        "tes"
      ],
      [
        "dist",
        "ribution"
      ],
      [
        "ĠB",
        "eing"
      ],
      [
        "ĠD",
        "ro"
      ],
      [
        "Ġli",
        "st"
      ],
      [
        "Ġne",
        "ed"
      ],
      [
        "Ġfe",
        "ature"
      ],
      [
        "Ġcase",
        "s"
      ],
      [
        "ser",
        "ver"
      ],
      [
        "workflow",
        "s"
      ],
      [
        "ĠSta",
        "ndar"
      ],
      [
        "Ġdis",
        "ability"
      ],
      [
        "EX",
        "TENSIO"
      ],
      [
        "gu",
        "ment"
      ],
      [
        "nT",
        "he"
      ],
      [
        "uti",
        "ls"
      ],
      [
        "ĠRE",
        "ADME"
      ],
      [
        "Ġar",
        "gument"
      ],
      [
        "ĠAN",
        "D"
      ],
      [
        "ĠCO",
        "DE"
      ],
      [
        "Ġori",
        "entation"
      ],
      [
        "Ġissu",
        "e"
      ],
      [
        "Ġdepreca",
        "ted"
      ],
      [
        "Ġparticipa",
        "tion"
      ],
      [
        "CON",
        "DU"
      ],
      [
        "IRE",
        "D"
      ],
      [
        "QU",
        "IRED"
      ],
      [
        "aio",
        "http"
      ],
      [
        "aran",
        "ce"
      ],
      [
        "dle",
        "ss"
      ],
      [
        "ew",
        "points"
      ],
      [
        "fre",
        "e"
      ],
      [
        "fer",
        "ing"
      ],
      [
        "js",
        "on"
      ],
      [
        "Ġpos",
        "itive"
      ],
      [
        "Ġvi",
        "ewpoints"
      ],
      [
        "tional",
        "ity"
      ],
      [
        "ceful",
        "ly"
      ],
      [
        "Ġappe",
        "arance"
      ],
      [
        "Ġscrip",
        "ts"
      ],
      [
        "hange",
        "log"
      ],
      [
        "Ġreli",
        "gion"
      ],
      [
        "Ġregar",
        "dless"
      ],
      [
        "Ġrespect",
        "ful"
      ],
      [
        "Ġcontain",
        "s"
      ],
      [
        "Ġcondi",
        "tions"
      ],
      [
        "ĠCove",
        "nant"
      ],
      [
        "Ġdif",
        "fering"
      ],
      [
        "Ġdoc",
        "u"
      ],
      [
        "Ġethni",
        "city"
      ],
      [
        "Ġempath",
        "y"
      ],
      [
        "Ġexpress",
        "ion"
      ],
      [
        "Depreca",
        "tions"
      ],
      [
        "Ġharass",
        "ment"
      ],
      [
        "ĠCondu",
        "ct"
      ],
      [
        "ĠStandar",
        "ds"
      ],
      [
        "EXTENSIO",
        "NS"
      ],
      [
        "CONDU",
        "CT"
      ],
      [
        "!",
        "["
      ],
      [
        "'",
        ","
      ],
      [
        "'",
        "t"
      ],
      [
        "*",
        "."
      ],
      [
        "/",
        "_"
      ],
      [
        "/",
        ").\\"
      ],
      [
        "0",
        "8"
      ],
      [
        "1",
        "24"
      ],
      [
        "1",
        "28"
      ],
      [
        "1",
        "26"
      ],
      [
        "2",
        "24"
      ],
      [
        "2",
        "38"
      ],
      [
        "2",
        "28"
      ],
      [
        "2",
        "35"
      ],
      [
        "3",
        "3"
      ],
      [
        "3",
        "38"
      ],
      [
        "3",
        "34"
      ],
      [
        "4",
        "1"
      ],
      [
        "4",
        "2"
      ],
      [
        "4",
        "3"
      ],
      [
        "4",
        "30"
      ],
      [
        "4",
        "32"
      ],
      [
        "4",
        "46"
      ],
      [
        "4",
        "39"
      ],
      [
        "4",
        "23"
      ],
      [
        "4",
        "22"
      ],
      [
        "5",
        "0"
      ],
      [
        "5",
        "1"
      ],
      [
        "5",
        "7"
      ],
      [
        "5",
        "8"
      ],
      [
        "6",
        "0"
      ],
      [
        "6",
        "4"
      ],
      [
        "6",
        "6"
      ],
      [
        "6",
        "9"
      ],
      [
        "7",
        "6"
      ],
      [
        "8",
        "0"
      ],
      [
        "8",
        "2"
      ],
      [
        "8",
        "4"
      ],
      [
        "8",
        "5"
      ],
      [
        "8",
        "8"
      ],
      [
        ":",
        ":"
      ],
      [
        "A",
        "B"
      ],
      [
        "A",
        "ge"
      ],
      [
        "A",
        "ll"
      ],
      [
        "A",
        "IO"
      ],
      [
        "B",
        "u"
      ],
      [
        "B",
        "UT"
      ],
      [
        "C",
        "I"
      ],
      [
        "C",
        "L"
      ],
      [
        "C",
        "HE"
      ],
      [
        "F",
        "alse"
      ],
      [
        "G",
        "IT"
      ],
      [
        "H",
        "ub"
      ],
      [
        "I",
        "C"
      ],
      [
        "L",
        "E"
      ],
      [
        "L",
        "IE"
      ],
      [
        "M",
        "P"
      ],
      [
        "N",
        "O"
      ],
      [
        "P",
        "E"
      ],
      [
        "P",
        "y"
      ],
      [
        "P",
        "lease"
      ],
      [
        "R",
        "ANT"
      ],
      [
        "S",
        "ub"
      ],
      [
        "T",
        "e"
      ],
      [
        "T",
        "RI"
      ],
      [
        "W",
        "AR"
      ],
      [
        "Y",
        "PE"
      ],
      [
        "a",
        "i"
      ],
      [
        "a",
        "tic"
      ],
      [
        "a",
        "ke"
      ],
      [
        "a",
        "ct"
      ],
      [
        "a",
        "ult"
      ],
      [
        "b",
        "in"
      ],
      [
        "b",
        "ran"
      ],
      [
        "c",
        "o"
      ],
      [
        "c",
        "y"
      ],
      [
        "c",
        "ode"
      ],
      [
        "c",
        "ol"
      ],
      [
        "c",
        "ter"
      ],
      [
        "d",
        "ing"
      ],
      [
        "e",
        "m"
      ],
      [
        "e",
        "cted"
      ],
      [
        "e",
        "ve"
      ],
      [
        "e",
        "red"
      ],
      [
        "f",
        "f"
      ],
      [
        "f",
        "or"
      ],
      [
        "f",
        "ut"
      ],
      [
        "f",
        "older"
      ],
      [
        "f",
        "ault"
      ],
      [
        "g",
        "a"
      ],
      [
        "g",
        "con"
      ],
      [
        "h",
        "is"
      ],
      [
        "h",
        "en"
      ],
      [
        "i",
        "c"
      ],
      [
        "i",
        "x"
      ],
      [
        "i",
        "mplementation"
      ],
      [
        "i",
        "ving"
      ],
      [
        "k",
        "gcon"
      ],
      [
        "m",
        "is"
      ],
      [
        "m",
        "ock"
      ],
      [
        "n",
        "C"
      ],
      [
        "n",
        "tic"
      ],
      [
        "n",
        "na"
      ],
      [
        "n",
        "no"
      ],
      [
        "n",
        "All"
      ],
      [
        "n",
        "Please"
      ],
      [
        "o",
        "th"
      ],
      [
        "o",
        "st"
      ],
      [
        "p",
        "s"
      ],
      [
        "r",
        "or"
      ],
      [
        "r",
        "se"
      ],
      [
        "s",
        "y"
      ],
      [
        "t",
        "ool"
      ],
      [
        "u",
        "se"
      ],
      [
        "u",
        "age"
      ],
      [
        "u",
        "ser"
      ],
      [
        "u",
        "ite"
      ],
      [
        "x",
        "Age"
      ],
      [
        "y",
        "ml"
      ],
      [
        "z",
        "ing"
      ],
      [
        "Ġ",
        "'"
      ],
      [
        "Ġ",
        "9"
      ],
      [
        "Ġ",
        ":"
      ],
      [
        "Ġ",
        "way"
      ],
      [
        "Ġ",
        "gra"
      ],
      [
        "Ġ",
        "pi"
      ],
      [
        "Ġ",
        ")\\"
      ],
      [
        "Ġ",
        "lib"
      ],
      [
        "Ġ",
        "un"
      ],
      [
        "Ġ",
        "...\","
      ],
      [
        "Ġ",
        "UR"
      ],
      [
        "Ġ",
        "__"
      ],
      [
        "Ġ",
        "USE"
      ],
      [
        "Ġ",
        "la"
      ],
      [
        "Ġ",
        "visible"
      ],
      [
        "Ġ",
        "llhttp"
      ],
      [
        "Ġ",
        "WAR"
      ],
      [
        "ĠĠĠĠ",
        "ĠĠĠĠĠĠĠ"
      ],
      [
        "ti",
        "ce"
      ],
      [
        "te",
        "n"
      ],
      [
        "te",
        "nt"
      ],
      [
        "on",
        "om"
      ],
      [
        "re",
        "nt"
      ],
      [
        "re",
        "qui"
      ],
      [
        "Ġ{",
        "}."
      ],
      [
        "pe",
        "py"
      ],
      [
        "in",
        "ar"
      ],
      [
        "in",
        "stall"
      ],
      [
        "ou",
        "s"
      ],
      [
        "th",
        "y"
      ],
      [
        "ste",
        "m"
      ],
      [
        "le",
        "x"
      ],
      [
        "or",
        "ies"
      ],
      [
        "Ġa",
        "c"
      ],
      [
        "Ġa",
        "t"
      ],
      [
        "Ġa",
        "v"
      ],
      [
        "Ġa",
        "po"
      ],
      [
        "Ġa",
        "ct"
      ],
      [
        "Ġa",
        "io"
      ],
      [
        "Ġa",
        "ff"
      ],
      [
        "ex",
        "t"
      ],
      [
        "ex",
        "ist"
      ],
      [
        "ex",
        "tra"
      ],
      [
        "ns",
        "ta"
      ],
      [
        "ns",
        "ize"
      ],
      [
        "nd",
        "ive"
      ],
      [
        "nd",
        "er"
      ],
      [
        "ra",
        "w"
      ],
      [
        "ra",
        "ge"
      ],
      [
        "ra",
        "ct"
      ],
      [
        "ra",
        "ry"
      ],
      [
        "ra",
        "ting"
      ],
      [
        "ra",
        "bility"
      ],
      [
        "ra",
        "cter"
      ],
      [
        "Ġs",
        "ource"
      ],
      [
        "Ġs",
        "ile"
      ],
      [
        "Ġs",
        "ub"
      ],
      [
        "Ġs",
        "oc"
      ],
      [
        "st",
        "at"
      ],
      [
        "st",
        "rong"
      ],
      [
        "st",
        "atic"
      ],
      [
        "st",
        "rating"
      ],
      [
        "ta",
        "tions"
      ],
      [
        "ta",
        "ble"
      ],
      [
        "ut",
        "f"
      ],
      [
        "Ġc",
        "a"
      ],
      [
        "Ġc",
        "ol"
      ],
      [
        "Ġc",
        "ur"
      ],
      [
        "Ġc",
        "an"
      ],
      [
        "ve",
        "ments"
      ],
      [
        "the",
        "ntic"
      ],
      [
        "tic",
        "s"
      ],
      [
        "al",
        "s"
      ],
      [
        "al",
        "thy"
      ],
      [
        "ha",
        "t"
      ],
      [
        "is",
        "tics"
      ],
      [
        "it",
        "Hub"
      ],
      [
        "ec",
        "ur"
      ],
      [
        "ec",
        "onom"
      ],
      [
        "mp",
        "ro"
      ],
      [
        "cra",
        "wler"
      ],
      [
        "ub",
        "lish"
      ],
      [
        "ck",
        "age"
      ],
      [
        "gi",
        "zing"
      ],
      [
        "lo",
        "gizing"
      ],
      [
        "pa",
        "ss"
      ],
      [
        "ke",
        "ys"
      ],
      [
        "odu",
        "ce"
      ],
      [
        "ppe",
        "d"
      ],
      [
        "module",
        "s"
      ],
      [
        "li",
        "cy"
      ],
      [
        "Ġt",
        "ru"
      ],
      [
        "ĠS",
        "upported"
      ],
      [
        "wa",
        "re"
      ],
      [
        "Ġrespon",
        "si"
      ],
      [
        "==",
        "\\"
      ],
      [
        "ĠT",
        "HE"
      ],
      [
        "ĠT",
        "YPE"
      ],
      [
        "ĠA",
        "dd"
      ],
      [
        "ĠA",
        "ccepting"
      ],
      [
        "ne",
        "ss"
      ],
      [
        "ne",
        "rability"
      ],
      [
        "Ġo",
        "pin"
      ],
      [
        "ĠC",
        "ON"
      ],
      [
        "ĠC",
        "URRENT"
      ],
      [
        "ĠC",
        "hangelog"
      ],
      [
        "Ġb",
        "oth"
      ],
      [
        "Ġb",
        "inar"
      ],
      [
        "ur",
        "n"
      ],
      [
        "Ġd",
        "o"
      ],
      [
        "Ġd",
        "ist"
      ],
      [
        "Ġd",
        "ocs"
      ],
      [
        "Ġd",
        "ownload"
      ],
      [
        "ri",
        "eve"
      ],
      [
        "CK",
        "ING"
      ],
      [
        "Ġin",
        "visible"
      ],
      [
        "Ġin",
        "stall"
      ],
      [
        "fi",
        "g"
      ],
      [
        "ĠRe",
        "distribution"
      ],
      [
        "he",
        "re"
      ],
      [
        "ar",
        "gs"
      ],
      [
        "ar",
        "ning"
      ],
      [
        "pro",
        "cess"
      ],
      [
        "lib",
        "s"
      ],
      [
        "Ġi",
        "mplementation"
      ],
      [
        "20",
        "0"
      ],
      [
        "20",
        "3"
      ],
      [
        "20",
        "5"
      ],
      [
        "20",
        "8"
      ],
      [
        "20",
        "25"
      ],
      [
        "20",
        "24"
      ],
      [
        "20",
        "14"
      ],
      [
        "Ġg",
        "et"
      ],
      [
        "Ġg",
        "it"
      ],
      [
        "ion",
        "s"
      ],
      [
        "ma",
        "t"
      ],
      [
        "ma",
        "ster"
      ],
      [
        "ma",
        "xAge"
      ],
      [
        "Ġw",
        "hen"
      ],
      [
        "Ġw",
        "hat"
      ],
      [
        "Ġw",
        "here"
      ],
      [
        "30",
        "1"
      ],
      [
        "30",
        "2"
      ],
      [
        "30",
        "5"
      ],
      [
        "30",
        "6"
      ],
      [
        "ul",
        "nerability"
      ],
      [
        "Ġe",
        "du"
      ],
      [
        "32",
        "1"
      ],
      [
        "32",
        "5"
      ],
      [
        "32",
        "9"
      ],
      [
        "46",
        "3"
      ],
      [
        "Ġex",
        "tra"
      ],
      [
        "RE",
        "PO"
      ],
      [
        "RE",
        "QUIRED"
      ],
      [
        "ab",
        "le"
      ],
      [
        "18",
        "2"
      ],
      [
        "18",
        "6"
      ],
      [
        "18",
        "8"
      ],
      [
        "int",
        "ro"
      ],
      [
        "**",
        ","
      ],
      [
        "25",
        "1"
      ],
      [
        "ind",
        "ness"
      ],
      [
        "24",
        "7"
      ],
      [
        "38",
        "1"
      ],
      [
        "38",
        "3"
      ],
      [
        "Ġhe",
        "althy"
      ],
      [
        "37",
        "0"
      ],
      [
        "37",
        "1"
      ],
      [
        "37",
        "4"
      ],
      [
        "37",
        "7"
      ],
      [
        "37",
        "8"
      ],
      [
        "de",
        "pend"
      ],
      [
        "Ġno",
        "tice"
      ],
      [
        "28",
        "9"
      ],
      [
        "29",
        "0"
      ],
      [
        "29",
        "7"
      ],
      [
        "29",
        "8"
      ],
      [
        "35",
        "0"
      ],
      [
        "35",
        "2"
      ],
      [
        "oc",
        "us"
      ],
      [
        "op",
        "le"
      ],
      [
        "op",
        "tions"
      ],
      [
        "11",
        "7"
      ],
      [
        "27",
        "0"
      ],
      [
        "36",
        "7"
      ],
      [
        "ng",
        "uage"
      ],
      [
        "26",
        "2"
      ],
      [
        "26",
        "9"
      ],
      [
        "47",
        "0"
      ],
      [
        "Ġu",
        "sing"
      ],
      [
        "Ġu",
        "nder"
      ],
      [
        "ist",
        "ake"
      ],
      [
        "Ġma",
        "in"
      ],
      [
        "Ġde",
        "pend"
      ],
      [
        "========",
        "==\\"
      ],
      [
        "15",
        "2"
      ],
      [
        "15",
        "9"
      ],
      [
        "34",
        "1"
      ],
      [
        "cl",
        "ai"
      ],
      [
        "ed",
        "back"
      ],
      [
        "enc",
        "y"
      ],
      [
        "10",
        "0"
      ],
      [
        "14",
        "3"
      ],
      [
        "40",
        "0"
      ],
      [
        "40",
        "7"
      ],
      [
        "40",
        "8"
      ],
      [
        "45",
        "0"
      ],
      [
        "45",
        "5"
      ],
      [
        "45",
        "7"
      ],
      [
        "Ġm",
        "ust"
      ],
      [
        "Ġm",
        "istake"
      ],
      [
        "ove",
        "rage"
      ],
      [
        "ĠF",
        "alse"
      ],
      [
        "ĠF",
        "ix"
      ],
      [
        "ĠF",
        "ocus"
      ],
      [
        "ĠI",
        "N"
      ],
      [
        "ĠI",
        "MP"
      ],
      [
        "Ġle",
        "aders"
      ],
      [
        "Ġle",
        "arning"
      ],
      [
        "Ġha",
        "ve"
      ],
      [
        "Ġcom",
        "pa"
      ],
      [
        "49",
        "2"
      ],
      [
        "49",
        "8"
      ],
      [
        "ht",
        "ml"
      ],
      [
        "Ġpe",
        "r"
      ],
      [
        "Ġpe",
        "ople"
      ],
      [
        "gn",
        "ore"
      ],
      [
        "rs",
        "et"
      ],
      [
        "Ġan",
        "no"
      ],
      [
        "Ġcha",
        "racter"
      ],
      [
        "\\\")",
        "."
      ],
      [
        "\\\")",
        ",\\"
      ],
      [
        "Ġsetup",
        "tool"
      ],
      [
        "ĠG",
        "iving"
      ],
      [
        "ĠG",
        "itHub"
      ],
      [
        "Ġup",
        "da"
      ],
      [
        "Ġup",
        "gra"
      ],
      [
        "Ġpro",
        "ject"
      ],
      [
        "Ġcontribu",
        "te"
      ],
      [
        "Ġinclude",
        "s"
      ],
      [
        "00",
        "0"
      ],
      [
        "48",
        "2"
      ],
      [
        "IT",
        "Y"
      ],
      [
        "nI",
        "f"
      ],
      [
        "Ġsh",
        "lex"
      ],
      [
        "Ġfe",
        "edback"
      ],
      [
        "ĠSta",
        "tus"
      ],
      [
        "Ġdis",
        "clai"
      ],
      [
        "Ġinte",
        "ract"
      ],
      [
        "```",
        "\\"
      ],
      [
        "Ġwith",
        "out"
      ],
      [
        "86",
        "400"
      ],
      [
        "IE",
        "S"
      ],
      [
        "\\\":",
        "\\"
      ],
      [
        "nRe",
        "quests"
      ],
      [
        "Ġ*",
        "_"
      ],
      [
        "Ġpy",
        "py"
      ],
      [
        "Ġpy",
        "test"
      ],
      [
        "Ġab",
        "ove"
      ],
      [
        "Ġsta",
        "tus"
      ],
      [
        "Ġrequi",
        "re"
      ],
      [
        "Ġrequi",
        "res"
      ],
      [
        "Ġtowar",
        "d"
      ],
      [
        "Ġtowar",
        "ds"
      ],
      [
        "================",
        "==========\\"
      ],
      [
        "Ġstring",
        "s"
      ],
      [
        "ĠVersion",
        "s"
      ],
      [
        "AsyncCrawler",
        "Process"
      ],
      [
        "AsyncCrawler",
        "Run"
      ],
      [
        "au",
        "thentic"
      ],
      [
        "mon",
        "strating"
      ],
      [
        "Ġk",
        "indness"
      ],
      [
        "Ġru",
        "n"
      ],
      [
        "ĠDe",
        "monstrating"
      ],
      [
        "nde",
        "f"
      ],
      [
        "Ġret",
        "urn"
      ],
      [
        "Ġtho",
        "se"
      ],
      [
        "Ġ20",
        "24"
      ],
      [
        "Ġna",
        "me"
      ],
      [
        "----------------",
        "---\\"
      ],
      [
        "Ġchange",
        "s"
      ],
      [
        "Ġprovide",
        "d"
      ],
      [
        "ĠDro",
        "pped"
      ],
      [
        "Ġdocu",
        "mentation"
      ],
      [
        "AIO",
        "HTTP"
      ],
      [
        "CHE",
        "CKING"
      ],
      [
        "LIE",
        "D"
      ],
      [
        "RANT",
        "IES"
      ],
      [
        "Sub",
        "process"
      ],
      [
        "Te",
        "st"
      ],
      [
        "TRI",
        "BUT"
      ],
      [
        "bran",
        "ch"
      ],
      [
        "fut",
        "ure"
      ],
      [
        "kgcon",
        "fig"
      ],
      [
        "mock",
        "server"
      ],
      [
        "nna",
        "tionality"
      ],
      [
        "nno",
        "x"
      ],
      [
        "sy",
        "stem"
      ],
      [
        "Ġway",
        "s"
      ],
      [
        "Ġgra",
        "cefully"
      ],
      [
        "Ġpi",
        "p"
      ],
      [
        "Ġlib",
        "rary"
      ],
      [
        "ĠUR",
        "L"
      ],
      [
        "Ġla",
        "nguage"
      ],
      [
        "ĠWAR",
        "RANTIES"
      ],
      [
        "Ġ{}.",
        "{"
      ],
      [
        "Ġapo",
        "logizing"
      ],
      [
        "Ġaff",
        "ected"
      ],
      [
        "exist",
        "s"
      ],
      [
        "nsta",
        "ll"
      ],
      [
        "ndive",
        "rse"
      ],
      [
        "Ġsile",
        "nt"
      ],
      [
        "Ġsoc",
        "io"
      ],
      [
        "stat",
        "us"
      ],
      [
        "Ġcur",
        "rent"
      ],
      [
        "ecur",
        "ity"
      ],
      [
        "econom",
        "ic"
      ],
      [
        "mpro",
        "vements"
      ],
      [
        "Ġresponsi",
        "bility"
      ],
      [
        "ĠAdd",
        "ed"
      ],
      [
        "Ġopin",
        "ions"
      ],
      [
        "ĠCON",
        "TRIBUT"
      ],
      [
        "Ġbinar",
        "y"
      ],
      [
        "ĠRedistribution",
        "s"
      ],
      [
        "Ġedu",
        "cation"
      ],
      [
        "Ġdepend",
        "ency"
      ],
      [
        "Ġmistake",
        "s"
      ],
      [
        "ĠFocus",
        "ing"
      ],
      [
        "ĠIMP",
        "LIED"
      ],
      [
        "Ġanno",
        "tations"
      ],
      [
        "Ġcharacter",
        "istics"
      ],
      [
        "Ġsetuptool",
        "s"
      ],
      [
        "Ġdisclai",
        "mer"
      ],
      [
        "AsyncCrawlerRun",
        "ner"
      ],
      [
        "authentic",
        "ated"
      ],
      [
        "!",
        "/"
      ],
      [
        "!",
        "="
      ],
      [
        "!",
        "\\"
      ],
      [
        "#",
        "!/"
      ],
      [
        "'",
        ")"
      ],
      [
        "'",
        ":"
      ],
      [
        "'",
        "s"
      ],
      [
        "'",
        "{"
      ],
      [
        "'",
        "re"
      ],
      [
        "'",
        ")\\"
      ],
      [
        "'",
        "ll"
      ],
      [
        "'",
        "></"
      ],
      [
        "'",
        "]\\"
      ],
      [
        "(",
        ")"
      ],
      [
        "(",
        "__"
      ],
      [
        ")",
        "]("
      ],
      [
        "*",
        "\\"
      ],
      [
        "*",
        "\\\")\\"
      ],
      [
        "+",
        "`"
      ],
      [
        "+",
        "\\\")\\"
      ],
      [
        "-",
        ">"
      ],
      [
        ".",
        "</"
      ],
      [
        "/",
        "\\"
      ],
      [
        "/",
        "\\\">\\"
      ],
      [
        "/",
        "\\\"><"
      ],
      [
        "/",
        "')\\"
      ],
      [
        "/",
        "*\\\")\\"
      ],
      [
        "0",
        "1"
      ],
      [
        "0",
        "6"
      ],
      [
        "1",
        "32"
      ],
      [
        "1",
        "18"
      ],
      [
        "1",
        "38"
      ],
      [
        "1",
        "35"
      ],
      [
        "1",
        "36"
      ],
      [
        "1",
        "44"
      ],
      [
        "1",
        "47"
      ],
      [
        "2",
        "32"
      ],
      [
        "2",
        "19"
      ],
      [
        "2",
        "29"
      ],
      [
        "2",
        "27"
      ],
      [
        "2",
        "39"
      ],
      [
        "2",
        "13"
      ],
      [
        "2",
        "16"
      ],
      [
        "2",
        "12"
      ],
      [
        "2",
        "23"
      ],
      [
        "3",
        "20"
      ],
      [
        "3",
        "32"
      ],
      [
        "3",
        "46"
      ],
      [
        "3",
        "18"
      ],
      [
        "3",
        "35"
      ],
      [
        "3",
        "11"
      ],
      [
        "3",
        "14"
      ],
      [
        "3",
        "13"
      ],
      [
        "4",
        "20"
      ],
      [
        "4",
        "19"
      ],
      [
        "4",
        "25"
      ],
      [
        "4",
        "24"
      ],
      [
        "4",
        "29"
      ],
      [
        "4",
        "35"
      ],
      [
        "4",
        "11"
      ],
      [
        "4",
        "27"
      ],
      [
        "4",
        "15"
      ],
      [
        "4",
        "13"
      ],
      [
        "4",
        "31"
      ],
      [
        "7",
        "25"
      ],
      [
        "7",
        "56"
      ],
      [
        "=",
        "%"
      ],
      [
        "=",
        "'"
      ],
      [
        "=",
        "<"
      ],
      [
        "=",
        "\\"
      ],
      [
        "=",
        "('"
      ],
      [
        ">",
        "-"
      ],
      [
        ">",
        "`"
      ],
      [
        "?",
        "\\\","
      ],
      [
        "A",
        "I"
      ],
      [
        "A",
        "L"
      ],
      [
        "A",
        "S"
      ],
      [
        "A",
        "RE"
      ],
      [
        "A",
        "SE"
      ],
      [
        "A",
        "NG"
      ],
      [
        "A",
        "main"
      ],
      [
        "A",
        "CI"
      ],
      [
        "B",
        "e"
      ],
      [
        "C",
        "H"
      ],
      [
        "C",
        "UR"
      ],
      [
        "C",
        "overage"
      ],
      [
        "D",
        "ING"
      ],
      [
        "D",
        "ownload"
      ],
      [
        "E",
        "L"
      ],
      [
        "E",
        "N"
      ],
      [
        "E",
        "V"
      ],
      [
        "E",
        "n"
      ],
      [
        "E",
        "r"
      ],
      [
        "E",
        "NS"
      ],
      [
        "E",
        "SS"
      ],
      [
        "E",
        "CUR"
      ],
      [
        "F",
        "j"
      ],
      [
        "F",
        "n"
      ],
      [
        "F",
        "or"
      ],
      [
        "G",
        "H"
      ],
      [
        "G",
        "Fj"
      ],
      [
        "H",
        "int"
      ],
      [
        "H",
        "ow"
      ],
      [
        "H",
        "ANG"
      ],
      [
        "I",
        "L"
      ],
      [
        "I",
        "M"
      ],
      [
        "I",
        "DE"
      ],
      [
        "I",
        "TE"
      ],
      [
        "I",
        "nstall"
      ],
      [
        "I",
        "mprovements"
      ],
      [
        "J",
        "o"
      ],
      [
        "K",
        "ee"
      ],
      [
        "L",
        "oc"
      ],
      [
        "L",
        "DE"
      ],
      [
        "L",
        "AR"
      ],
      [
        "M",
        "ock"
      ],
      [
        "N",
        "g"
      ],
      [
        "N",
        "z"
      ],
      [
        "N",
        "RE"
      ],
      [
        "N",
        "ow"
      ],
      [
        "N",
        "ESS"
      ],
      [
        "O",
        "G"
      ],
      [
        "O",
        "S"
      ],
      [
        "O",
        "T"
      ],
      [
        "O",
        "V"
      ],
      [
        "O",
        "n"
      ],
      [
        "O",
        "LDE"
      ],
      [
        "P",
        "RE"
      ],
      [
        "P",
        "ython"
      ],
      [
        "P",
        "ath"
      ],
      [
        "P",
        "UT"
      ],
      [
        "P",
        "ack"
      ],
      [
        "R",
        "S"
      ],
      [
        "R",
        "et"
      ],
      [
        "R",
        "CH"
      ],
      [
        "R",
        "OV"
      ],
      [
        "S",
        "T"
      ],
      [
        "S",
        "h"
      ],
      [
        "S",
        "erver"
      ],
      [
        "S",
        "ession"
      ],
      [
        "S",
        "uite"
      ],
      [
        "S",
        "ecurity"
      ],
      [
        "T",
        "W"
      ],
      [
        "T",
        "OR"
      ],
      [
        "T",
        "IC"
      ],
      [
        "T",
        "AL"
      ],
      [
        "U",
        "ns"
      ],
      [
        "U",
        "sing"
      ],
      [
        "U",
        "DING"
      ],
      [
        "U",
        "GFj"
      ],
      [
        "U",
        "LAR"
      ],
      [
        "U",
        "NRE"
      ],
      [
        "V",
        "E"
      ],
      [
        "Y",
        "ou"
      ],
      [
        "Z",
        "S"
      ],
      [
        "[",
        "'"
      ],
      [
        "[",
        "-"
      ],
      [
        "[",
        ":"
      ],
      [
        "[",
        "!["
      ],
      [
        "\\",
        "["
      ],
      [
        "\\",
        "]\\"
      ],
      [
        "]",
        ">\\"
      ],
      [
        "]",
        ",\\"
      ],
      [
        "_",
        "...\","
      ],
      [
        "`",
        "\\"
      ],
      [
        "a",
        "m"
      ],
      [
        "a",
        "p"
      ],
      [
        "a",
        "s"
      ],
      [
        "a",
        "y"
      ],
      [
        "a",
        "tion"
      ],
      [
        "a",
        "in"
      ],
      [
        "a",
        "st"
      ],
      [
        "a",
        "sync"
      ],
      [
        "a",
        "ccep"
      ],
      [
        "a",
        "il"
      ],
      [
        "a",
        "ting"
      ],
      [
        "a",
        "si"
      ],
      [
        "b",
        "ut"
      ],
      [
        "b",
        "ro"
      ],
      [
        "b",
        "an"
      ],
      [
        "b",
        "asi"
      ],
      [
        "c",
        "f"
      ],
      [
        "c",
        "s"
      ],
      [
        "c",
        "ut"
      ],
      [
        "c",
        "ha"
      ],
      [
        "c",
        "cess"
      ],
      [
        "c",
        "python"
      ],
      [
        "c",
        "hangelog"
      ],
      [
        "c",
        "overage"
      ],
      [
        "c",
        "OS"
      ],
      [
        "d",
        "v"
      ],
      [
        "d",
        "th"
      ],
      [
        "d",
        "ers"
      ],
      [
        "e",
        "b"
      ],
      [
        "e",
        "i"
      ],
      [
        "e",
        "pa"
      ],
      [
        "e",
        "vent"
      ],
      [
        "f",
        "t"
      ],
      [
        "f",
        "ted"
      ],
      [
        "f",
        "tp"
      ],
      [
        "f",
        "ur"
      ],
      [
        "f",
        "test"
      ],
      [
        "f",
        "ly"
      ],
      [
        "g",
        "g"
      ],
      [
        "g",
        "r"
      ],
      [
        "g",
        "v"
      ],
      [
        "g",
        "it"
      ],
      [
        "g",
        "ration"
      ],
      [
        "g",
        "lo"
      ],
      [
        "g",
        "er"
      ],
      [
        "g",
        "ene"
      ],
      [
        "g",
        "fi"
      ],
      [
        "g",
        "inal"
      ],
      [
        "g",
        "at"
      ],
      [
        "h",
        "ra"
      ],
      [
        "h",
        "el"
      ],
      [
        "h",
        "ow"
      ],
      [
        "h",
        "ype"
      ],
      [
        "i",
        "ted"
      ],
      [
        "i",
        "mp"
      ],
      [
        "i",
        "fic"
      ],
      [
        "i",
        "mport"
      ],
      [
        "i",
        "de"
      ],
      [
        "i",
        "ght"
      ],
      [
        "i",
        "tes"
      ],
      [
        "i",
        "ci"
      ],
      [
        "i",
        "gnore"
      ],
      [
        "j",
        "ust"
      ],
      [
        "k",
        "ing"
      ],
      [
        "k",
        "war"
      ],
      [
        "l",
        "d"
      ],
      [
        "l",
        "on"
      ],
      [
        "l",
        "it"
      ],
      [
        "l",
        "ling"
      ],
      [
        "l",
        "ate"
      ],
      [
        "l",
        "ab"
      ],
      [
        "l",
        "der"
      ],
      [
        "l",
        "one"
      ],
      [
        "m",
        "ra"
      ],
      [
        "m",
        "it"
      ],
      [
        "m",
        "ar"
      ],
      [
        "m",
        "alize"
      ],
      [
        "m",
        "ove"
      ],
      [
        "m",
        "ited"
      ],
      [
        "n",
        "v"
      ],
      [
        "n",
        "y"
      ],
      [
        "n",
        "ce"
      ],
      [
        "n",
        "or"
      ],
      [
        "n",
        "etwork"
      ],
      [
        "n",
        "ne"
      ],
      [
        "n",
        "https"
      ],
      [
        "n",
        "test"
      ],
      [
        "n",
        "TH"
      ],
      [
        "n",
        "con"
      ],
      [
        "n",
        "ow"
      ],
      [
        "n",
        "USE"
      ],
      [
        "n",
        "ual"
      ],
      [
        "n",
        "pin"
      ],
      [
        "n",
        "HERE"
      ],
      [
        "n",
        "HTTPX"
      ],
      [
        "n",
        "NO"
      ],
      [
        "n",
        "col"
      ],
      [
        "n",
        "requi"
      ],
      [
        "n",
        "REQUIRED"
      ],
      [
        "n",
        "Be"
      ],
      [
        "n",
        "Now"
      ],
      [
        "n",
        "Uns"
      ],
      [
        "o",
        "s"
      ],
      [
        "o",
        "te"
      ],
      [
        "o",
        "id"
      ],
      [
        "o",
        "ster"
      ],
      [
        "o",
        "licy"
      ],
      [
        "o",
        "ft"
      ],
      [
        "o",
        "gat"
      ],
      [
        "p",
        "or"
      ],
      [
        "p",
        "ing"
      ],
      [
        "p",
        "ile"
      ],
      [
        "p",
        "li"
      ],
      [
        "p",
        "ng"
      ],
      [
        "p",
        "ublish"
      ],
      [
        "p",
        "kgconfig"
      ],
      [
        "p",
        "lit"
      ],
      [
        "r",
        "ted"
      ],
      [
        "r",
        "st"
      ],
      [
        "r",
        "is"
      ],
      [
        "r",
        "it"
      ],
      [
        "r",
        "oduce"
      ],
      [
        "r",
        "glo"
      ],
      [
        "s",
        "et"
      ],
      [
        "s",
        "pon"
      ],
      [
        "s",
        "pi"
      ],
      [
        "s",
        "ul"
      ],
      [
        "s",
        "tions"
      ],
      [
        "s",
        "crip"
      ],
      [
        "s",
        "ock"
      ],
      [
        "s",
        "hel"
      ],
      [
        "s",
        "plit"
      ],
      [
        "t",
        "d"
      ],
      [
        "t",
        "w"
      ],
      [
        "t",
        "re"
      ],
      [
        "t",
        "or"
      ],
      [
        "t",
        "li"
      ],
      [
        "t",
        "ri"
      ],
      [
        "u",
        "v"
      ],
      [
        "u",
        "x"
      ],
      [
        "u",
        "th"
      ],
      [
        "u",
        "ni"
      ],
      [
        "u",
        "il"
      ],
      [
        "u",
        "alize"
      ],
      [
        "u",
        "ting"
      ],
      [
        "u",
        "id"
      ],
      [
        "u",
        "mer"
      ],
      [
        "u",
        "mber"
      ],
      [
        "u",
        "ites"
      ],
      [
        "v",
        "ulnerability"
      ],
      [
        "w",
        "ri"
      ],
      [
        "w",
        "el"
      ],
      [
        "w",
        "he"
      ],
      [
        "w",
        "iste"
      ],
      [
        "w",
        "hi"
      ],
      [
        "w",
        "ered"
      ],
      [
        "w",
        "eb"
      ],
      [
        "x",
        "es"
      ],
      [
        "y",
        "py"
      ],
      [
        "y",
        "Py"
      ],
      [
        "y",
        "ping"
      ],
      [
        "z",
        "st"
      ],
      [
        "{",
        "'"
      ],
      [
        "}",
        ","
      ],
      [
        "}",
        "\\"
      ],
      [
        "Ġ",
        "&"
      ],
      [
        "Ġ",
        "+"
      ],
      [
        "Ġ",
        "_"
      ],
      [
        "Ġ",
        "te"
      ],
      [
        "Ġ",
        "put"
      ],
      [
        "Ġ",
        "CP"
      ],
      [
        "Ġ",
        "en"
      ],
      [
        "Ġ",
        "que"
      ],
      [
        "Ġ",
        "work"
      ],
      [
        "Ġ",
        "Ex"
      ],
      [
        "Ġ",
        "=="
      ],
      [
        "Ġ",
        "--"
      ],
      [
        "Ġ",
        "----"
      ],
      [
        "Ġ",
        "ter"
      ],
      [
        "Ġ",
        "python"
      ],
      [
        "Ġ",
        "ME"
      ],
      [
        "Ġ",
        "war"
      ],
      [
        "Ġ",
        "right"
      ],
      [
        "Ġ",
        "EX"
      ],
      [
        "Ġ",
        ")."
      ],
      [
        "Ġ",
        "Run"
      ],
      [
        "Ġ",
        "line"
      ],
      [
        "Ġ",
        "----------------"
      ],
      [
        "Ġ",
        "modules"
      ],
      [
        "Ġ",
        "!="
      ],
      [
        "Ġ",
        "->"
      ],
      [
        "Ġ",
        "EV"
      ],
      [
        "Ġ",
        "Mock"
      ],
      [
        "Ġ",
        "Ret"
      ],
      [
        "Ġ",
        "Using"
      ],
      [
        "Ġ",
        "You"
      ],
      [
        "Ġ",
        "just"
      ],
      [
        "Ġ",
        "lon"
      ],
      [
        "Ġ",
        "vulnerability"
      ],
      [
        "ĠĠĠĠ",
        "ĠĠĠĠĠĠĠĠĠĠĠ"
      ],
      [
        "ti",
        "fi"
      ],
      [
        "\",",
        "\\"
      ],
      [
        "te",
        "ns"
      ],
      [
        "te",
        "ration"
      ],
      [
        "te",
        "na"
      ],
      [
        "te",
        "ch"
      ],
      [
        "on",
        "s"
      ],
      [
        "on",
        "tent"
      ],
      [
        "re",
        "lease"
      ],
      [
        "re",
        "ments"
      ],
      [
        "re",
        "act"
      ],
      [
        "Ġ{",
        "\\"
      ],
      [
        "ce",
        "s"
      ],
      [
        "ce",
        "mber"
      ],
      [
        "pe",
        "ci"
      ],
      [
        "pe",
        "line"
      ],
      [
        "in",
        "it"
      ],
      [
        "in",
        "ter"
      ],
      [
        "in",
        "ux"
      ],
      [
        "ou",
        "p"
      ],
      [
        "ou",
        "nd"
      ],
      [
        "ou",
        "ld"
      ],
      [
        "ction",
        "s"
      ],
      [
        "me",
        "ly"
      ],
      [
        "th",
        "od"
      ],
      [
        "ste",
        "d"
      ],
      [
        "res",
        "t"
      ],
      [
        "res",
        "entation"
      ],
      [
        "le",
        "ct"
      ],
      [
        "le",
        "vel"
      ],
      [
        "le",
        "ga"
      ],
      [
        "le",
        "ctions"
      ],
      [
        "or",
        "n"
      ],
      [
        "or",
        "se"
      ],
      [
        "Ġa",
        "ns"
      ],
      [
        "Ġa",
        "ware"
      ],
      [
        "Ġa",
        "dv"
      ],
      [
        "Ġa",
        "uth"
      ],
      [
        "ex",
        "ample"
      ],
      [
        "ns",
        "upp"
      ],
      [
        "ns",
        "ust"
      ],
      [
        "nd",
        "or"
      ],
      [
        "ra",
        "ck"
      ],
      [
        "ra",
        "cefully"
      ],
      [
        "ra",
        "fted"
      ],
      [
        "time",
        "Er"
      ],
      [
        "od",
        "ing"
      ],
      [
        "od",
        "ay"
      ],
      [
        "od",
        "ific"
      ],
      [
        "po",
        "licy"
      ],
      [
        "Ġs",
        "end"
      ],
      [
        "Ġs",
        "ize"
      ],
      [
        "Ġs",
        "ty"
      ],
      [
        "Ġs",
        "dist"
      ],
      [
        "Ġs",
        "ee"
      ],
      [
        "Ġs",
        "oft"
      ],
      [
        "Ġs",
        "uites"
      ],
      [
        "Ġs",
        "peci"
      ],
      [
        "st",
        "rip"
      ],
      [
        "Ġf",
        "ul"
      ],
      [
        "Ġf",
        "oster"
      ],
      [
        "Ġc",
        "ri"
      ],
      [
        "Ġc",
        "ython"
      ],
      [
        "Ġc",
        "la"
      ],
      [
        "Ġc",
        "lone"
      ],
      [
        "Ġc",
        "rafted"
      ],
      [
        "et",
        "rc"
      ],
      [
        "se",
        "d"
      ],
      [
        "se",
        "cur"
      ],
      [
        "ve",
        "d"
      ],
      [
        "ve",
        "nv"
      ],
      [
        "ve",
        "ndor"
      ],
      [
        "Re",
        "quests"
      ],
      [
        "Re",
        "spon"
      ],
      [
        "tic",
        "is"
      ],
      [
        "al",
        "ici"
      ],
      [
        "Ġre",
        "posit"
      ],
      [
        "Ġre",
        "ver"
      ],
      [
        "Ġre",
        "lease"
      ],
      [
        "Ġre",
        "tain"
      ],
      [
        "is",
        "su"
      ],
      [
        "py",
        "t"
      ],
      [
        "py",
        "version"
      ],
      [
        "py",
        "con"
      ],
      [
        "ec",
        "k"
      ],
      [
        "ec",
        "ide"
      ],
      [
        "mp",
        "li"
      ],
      [
        "mp",
        "act"
      ],
      [
        "en",
        "v"
      ],
      [
        "ru",
        "n"
      ],
      [
        "Ġfor",
        "mat"
      ],
      [
        "da",
        "ys"
      ],
      [
        "Ġcode",
        "cs"
      ],
      [
        ":\\",
        "\","
      ],
      [
        "Ġ[",
        "]\\"
      ],
      [
        "Ġ[",
        "],\\"
      ],
      [
        "github",
        "use"
      ],
      [
        "lo",
        "op"
      ],
      [
        "\\\"",
        "."
      ],
      [
        "\\\"",
        "\\"
      ],
      [
        "nF",
        "or"
      ],
      [
        "source",
        "s"
      ],
      [
        "Ġres",
        "er"
      ],
      [
        "pa",
        "ckage"
      ],
      [
        "pa",
        "ris"
      ],
      [
        "Ex",
        "Ng"
      ],
      [
        "ke",
        "epa"
      ],
      [
        "odu",
        "ct"
      ],
      [
        "ive",
        "d"
      ],
      [
        "er",
        "ror"
      ],
      [
        "er",
        "ived"
      ],
      [
        "Ġt",
        "ry"
      ],
      [
        "Ġt",
        "rue"
      ],
      [
        "Ġt",
        "ype"
      ],
      [
        "Ġt",
        "wiste"
      ],
      [
        "Ġt",
        "yping"
      ],
      [
        "Ġt",
        "rack"
      ],
      [
        "Ġt",
        "oday"
      ],
      [
        "ro",
        "ss"
      ],
      [
        "ro",
        "lling"
      ],
      [
        "Ġpa",
        "ckage"
      ],
      [
        "ĠS",
        "crapy"
      ],
      [
        "ĠS",
        "OF"
      ],
      [
        "ĠS",
        "uite"
      ],
      [
        "ĠS",
        "ecurity"
      ],
      [
        "ĠS",
        "ECUR"
      ],
      [
        "ĠS",
        "how"
      ],
      [
        "wa",
        "days"
      ],
      [
        "ĠH",
        "ist"
      ],
      [
        "ĠH",
        "IS"
      ],
      [
        "ĠH",
        "OLDE"
      ],
      [
        "NS",
        "TAL"
      ],
      [
        "Ġcon",
        "fi"
      ],
      [
        "Ġcon",
        "si"
      ],
      [
        "Ġcon",
        "ftest"
      ],
      [
        "==",
        "=\\"
      ],
      [
        "http",
        "bin"
      ],
      [
        "ĠT",
        "O"
      ],
      [
        "ĠT",
        "o"
      ],
      [
        "ĠT",
        "his"
      ],
      [
        "ĠT",
        "rolling"
      ],
      [
        "ok",
        "s"
      ],
      [
        "ĠA",
        "RE"
      ],
      [
        "ate",
        "ri"
      ],
      [
        "ne",
        "w"
      ],
      [
        "Ġo",
        "lder"
      ],
      [
        "ĠC",
        "ython"
      ],
      [
        "ĠC",
        "HANG"
      ],
      [
        "ĠC",
        "VE"
      ],
      [
        "ĠN",
        "ove"
      ],
      [
        "ĠN",
        "one"
      ],
      [
        "ĠN",
        "ei"
      ],
      [
        "ĠN",
        "umer"
      ],
      [
        "Ġto",
        "pi"
      ],
      [
        "Ġto",
        "ge"
      ],
      [
        "Ġb",
        "ase"
      ],
      [
        "Ġb",
        "dist"
      ],
      [
        "Ġb",
        "uil"
      ],
      [
        "gra",
        "ted"
      ],
      [
        "ent",
        "s"
      ],
      [
        "Ġn",
        "on"
      ],
      [
        "Ġn",
        "or"
      ],
      [
        "Ġn",
        "ext"
      ],
      [
        "Ġn",
        "umber"
      ],
      [
        "Ġn",
        "etrc"
      ],
      [
        "Ġd",
        "ecide"
      ],
      [
        "Ġd",
        "erived"
      ],
      [
        "ri",
        "or"
      ],
      [
        "enera",
        "te"
      ],
      [
        "enera",
        "tor"
      ],
      [
        "ss",
        "l"
      ],
      [
        "..",
        "\","
      ],
      [
        "..",
        ".\\"
      ],
      [
        "..",
        "..\","
      ],
      [
        "pi",
        "peline"
      ],
      [
        "ort",
        "cut"
      ],
      [
        "el",
        "ine"
      ],
      [
        "nt",
        "s"
      ],
      [
        "ad",
        "vis"
      ],
      [
        "Ġin",
        "tr"
      ],
      [
        "Ġin",
        "fo"
      ],
      [
        "Ġin",
        "stal"
      ],
      [
        "Ġin",
        "for"
      ],
      [
        "Ġin",
        "sul"
      ],
      [
        "fi",
        "ed"
      ],
      [
        "ĠL",
        "IC"
      ],
      [
        "ĠL",
        "IM"
      ],
      [
        "ĠL",
        "td"
      ],
      [
        "ĠL",
        "inux"
      ],
      [
        "ĠRe",
        "move"
      ],
      [
        "ĠRe",
        "por"
      ],
      [
        "ĠHTTP",
        "X"
      ],
      [
        "Ġresol",
        "ve"
      ],
      [
        ".\\",
        "\\]\\"
      ],
      [
        "he",
        "aders"
      ],
      [
        "cer",
        "t"
      ],
      [
        "cer",
        "tifi"
      ],
      [
        ")\\",
        "\",\\"
      ],
      [
        ":/",
        "...\","
      ],
      [
        "Ġcer",
        "tain"
      ],
      [
        "====",
        "===\\"
      ],
      [
        "ar",
        "gv"
      ],
      [
        "pro",
        "c"
      ],
      [
        "low",
        "s"
      ],
      [
        "Ġcertificate",
        "s"
      ],
      [
        "Ġi",
        "ma"
      ],
      [
        "Ġi",
        "gnore"
      ],
      [
        "Ġi",
        "mprovements"
      ],
      [
        "Ġi",
        "teration"
      ],
      [
        "Ġi",
        "mpact"
      ],
      [
        "20",
        "7"
      ],
      [
        "20",
        "9"
      ],
      [
        "20",
        "19"
      ],
      [
        "20",
        "17"
      ],
      [
        "Ġg",
        "uid"
      ],
      [
        "Ġg",
        "enerate"
      ],
      [
        "Ġ\\\"",
        "-"
      ],
      [
        "Ġ\\\"",
        "."
      ],
      [
        "Ġ\\\"",
        "\\\"\\\""
      ],
      [
        "ma",
        "tion"
      ],
      [
        "ma",
        "nd"
      ],
      [
        "ma",
        "ch"
      ],
      [
        "Ġw",
        "e"
      ],
      [
        "Ġw",
        "ee"
      ],
      [
        "Ġw",
        "rong"
      ],
      [
        "Ġw",
        "rit"
      ],
      [
        "30",
        "3"
      ],
      [
        "ul",
        "ling"
      ],
      [
        "ĠP",
        "UR"
      ],
      [
        "ĠP",
        "AR"
      ],
      [
        "ĠP",
        "ROV"
      ],
      [
        "ĠP",
        "olicy"
      ],
      [
        "ĠP",
        "yPy"
      ],
      [
        "Ġe",
        "as"
      ],
      [
        "Ġe",
        "lega"
      ],
      [
        "test",
        "proc"
      ],
      [
        "32",
        "6"
      ],
      [
        "32",
        "8"
      ],
      [
        "46",
        "2"
      ],
      [
        "46",
        "4"
      ],
      [
        "46",
        "5"
      ],
      [
        "46",
        "6"
      ],
      [
        "46",
        "8"
      ],
      [
        "46",
        "9"
      ],
      [
        "Ġex",
        "tre"
      ],
      [
        "RE",
        "ADME"
      ],
      [
        "ab",
        "c"
      ],
      [
        "ab",
        "ling"
      ],
      [
        "com",
        "pile"
      ],
      [
        "com",
        "paris"
      ],
      [
        "ter",
        "fly"
      ],
      [
        "18",
        "0"
      ],
      [
        "18",
        "1"
      ],
      [
        "18",
        "3"
      ],
      [
        "18",
        "7"
      ],
      [
        "19",
        "0"
      ],
      [
        "19",
        "1"
      ],
      [
        "19",
        "3"
      ],
      [
        "19",
        "4"
      ],
      [
        "19",
        "5"
      ],
      [
        "19",
        "6"
      ],
      [
        "19",
        "7"
      ],
      [
        "19",
        "8"
      ],
      [
        "**",
        ":\\"
      ],
      [
        "**",
        ".\\"
      ],
      [
        "25",
        "2"
      ],
      [
        "25",
        "8"
      ],
      [
        "rom",
        "ote"
      ],
      [
        "vi",
        "al"
      ],
      [
        "...",
        "*\\"
      ],
      [
        "24",
        "0"
      ],
      [
        "24",
        "2"
      ],
      [
        "24",
        "3"
      ],
      [
        "24",
        "4"
      ],
      [
        "24",
        "9"
      ],
      [
        "38",
        "4"
      ],
      [
        "38",
        "5"
      ],
      [
        "38",
        "6"
      ],
      [
        "38",
        "7"
      ],
      [
        "Ġp",
        "ref"
      ],
      [
        "Ġp",
        "lease"
      ],
      [
        "Ġp",
        "ublish"
      ],
      [
        "Ġp",
        "kgconfig"
      ],
      [
        "Ġp",
        "rior"
      ],
      [
        "Ġp",
        "ulling"
      ],
      [
        "Ġp",
        "romote"
      ],
      [
        "Ġhe",
        "re"
      ],
      [
        "Ġhe",
        "ight"
      ],
      [
        "Ġbod",
        "ies"
      ],
      [
        "37",
        "9"
      ],
      [
        "de",
        "v"
      ],
      [
        "de",
        "red"
      ],
      [
        "de",
        "fault"
      ],
      [
        "ize",
        "s"
      ],
      [
        "Ġno",
        "table"
      ],
      [
        "Ġno",
        "wadays"
      ],
      [
        "Ġgeneral",
        "ly"
      ],
      [
        "28",
        "1"
      ],
      [
        "28",
        "2"
      ],
      [
        "28",
        "4"
      ],
      [
        "28",
        "7"
      ],
      [
        "29",
        "1"
      ],
      [
        "29",
        "3"
      ],
      [
        "29",
        "9"
      ],
      [
        "35",
        "1"
      ],
      [
        "35",
        "3"
      ],
      [
        "35",
        "4"
      ],
      [
        "35",
        "6"
      ],
      [
        "35",
        "8"
      ],
      [
        "at",
        "tr"
      ],
      [
        "il",
        "d"
      ],
      [
        "il",
        "y"
      ],
      [
        "11",
        "0"
      ],
      [
        "11",
        "1"
      ],
      [
        "11",
        "2"
      ],
      [
        "11",
        "6"
      ],
      [
        "27",
        "1"
      ],
      [
        "27",
        "2"
      ],
      [
        "27",
        "4"
      ],
      [
        "27",
        "5"
      ],
      [
        "27",
        "7"
      ],
      [
        "27",
        "17"
      ],
      [
        "36",
        "1"
      ],
      [
        "36",
        "2"
      ],
      [
        "36",
        "5"
      ],
      [
        "36",
        "6"
      ],
      [
        "36",
        "9"
      ],
      [
        "36",
        "08"
      ],
      [
        "pare",
        "nt"
      ],
      [
        "trib",
        "uting"
      ],
      [
        "Ġend",
        "orse"
      ],
      [
        "##",
        "#"
      ],
      [
        "17",
        "0"
      ],
      [
        "17",
        "1"
      ],
      [
        "17",
        "2"
      ],
      [
        "17",
        "4"
      ],
      [
        "17",
        "8"
      ],
      [
        "26",
        "3"
      ],
      [
        "26",
        "4"
      ],
      [
        "26",
        "6"
      ],
      [
        "26",
        "7"
      ],
      [
        "26",
        "8"
      ],
      [
        "44",
        "1"
      ],
      [
        "44",
        "4"
      ],
      [
        "44",
        "9"
      ],
      [
        "47",
        "1"
      ],
      [
        "47",
        "5"
      ],
      [
        "47",
        "7"
      ],
      [
        "47",
        "8"
      ],
      [
        "Ġh",
        "ype"
      ],
      [
        "Ġh",
        "older"
      ],
      [
        "Ġh",
        "ost"
      ],
      [
        "Ġu",
        "nsust"
      ],
      [
        "ĠAPI",
        "s"
      ],
      [
        "tests",
        "ite"
      ],
      [
        "(\\\"",
        "*."
      ],
      [
        "Con",
        "text"
      ],
      [
        "Ġ(",
        "<"
      ],
      [
        "Ġ(",
        "\\"
      ],
      [
        "Ġlo",
        "oks"
      ],
      [
        "Ġma",
        "cOS"
      ],
      [
        "Ġma",
        "king"
      ],
      [
        "Ġma",
        "nual"
      ],
      [
        "Ġbe",
        "st"
      ],
      [
        "Ġbe",
        "en"
      ],
      [
        "Ġde",
        "fault"
      ],
      [
        "Ġde",
        "ps"
      ],
      [
        "Ġde",
        "scrip"
      ],
      [
        "========",
        "=======\\"
      ],
      [
        "15",
        "6"
      ],
      [
        "34",
        "3"
      ],
      [
        "34",
        "5"
      ],
      [
        "34",
        "8"
      ],
      [
        "34",
        "9"
      ],
      [
        "34",
        "2717"
      ],
      [
        "na",
        "nd"
      ],
      [
        "rc",
        "ontent"
      ],
      [
        "rc",
        "orn"
      ],
      [
        "enc",
        "oding"
      ],
      [
        "10",
        "2"
      ],
      [
        "10",
        "4"
      ],
      [
        "14",
        "1"
      ],
      [
        "14",
        "8"
      ],
      [
        "39",
        "0"
      ],
      [
        "39",
        "1"
      ],
      [
        "39",
        "2"
      ],
      [
        "39",
        "4"
      ],
      [
        "39",
        "5"
      ],
      [
        "40",
        "1"
      ],
      [
        "40",
        "3"
      ],
      [
        "45",
        "1"
      ],
      [
        "45",
        "3"
      ],
      [
        "der",
        "ogat"
      ],
      [
        "ĠO",
        "F"
      ],
      [
        "ĠO",
        "K"
      ],
      [
        "ĠO",
        "R"
      ],
      [
        "ĠO",
        "SS"
      ],
      [
        "Ġm",
        "ore"
      ],
      [
        "Ġm",
        "ost"
      ],
      [
        "Ġm",
        "ypy"
      ],
      [
        "Ġm",
        "odific"
      ],
      [
        "Ġm",
        "alici"
      ],
      [
        "Ġm",
        "ateri"
      ],
      [
        "Ġal",
        "l"
      ],
      [
        "Ġal",
        "lows"
      ],
      [
        "Ġsupp",
        "orted"
      ],
      [
        "us",
        "r"
      ],
      [
        "ĠF",
        "o"
      ],
      [
        "ĠF",
        "IT"
      ],
      [
        "ĠF",
        "OR"
      ],
      [
        "ĠI",
        "t"
      ],
      [
        "ĠI",
        "NSTAL"
      ],
      [
        "Ġy",
        "et"
      ],
      [
        "Ġle",
        "t"
      ],
      [
        "Ġle",
        "ast"
      ],
      [
        "Ġha",
        "d"
      ],
      [
        "Ġcom",
        "ments"
      ],
      [
        "Ġcom",
        "mand"
      ],
      [
        "13",
        "3"
      ],
      [
        "16",
        "3"
      ],
      [
        "16",
        "4"
      ],
      [
        "16",
        "5"
      ],
      [
        "16",
        "7"
      ],
      [
        "16",
        "8"
      ],
      [
        "49",
        "5"
      ],
      [
        "49",
        "9"
      ],
      [
        "pre",
        "ters"
      ],
      [
        "ty",
        "pe"
      ],
      [
        "Ġby",
        "te"
      ],
      [
        "Ġby",
        "tes"
      ],
      [
        "Ġuse",
        "d"
      ],
      [
        "Ġuse",
        "rs"
      ],
      [
        "12",
        "1"
      ],
      [
        "12",
        "2"
      ],
      [
        "12",
        "3"
      ],
      [
        "12",
        "36"
      ],
      [
        "PY",
        "RI"
      ],
      [
        "con",
        "text"
      ],
      [
        "con",
        "tent"
      ],
      [
        "con",
        "tributing"
      ],
      [
        "es",
        "n"
      ],
      [
        "men",
        "ted"
      ],
      [
        "Ġsex",
        "ualize"
      ],
      [
        "Ġcha",
        "rset"
      ],
      [
        "Ġcha",
        "nne"
      ],
      [
        "ĠThe",
        "re"
      ],
      [
        "denti",
        "als"
      ],
      [
        "23",
        "1"
      ],
      [
        "ME",
        "D"
      ],
      [
        "__",
        ")."
      ],
      [
        "ch",
        "ing"
      ],
      [
        "ch",
        "eck"
      ],
      [
        "su",
        "ccess"
      ],
      [
        "ĠG",
        "racefully"
      ],
      [
        "ĠG",
        "enerator"
      ],
      [
        "Ġon",
        "e"
      ],
      [
        "Ġme",
        "t"
      ],
      [
        "Ġme",
        "mra"
      ],
      [
        "Ġme",
        "thod"
      ],
      [
        "Ġup",
        "on"
      ],
      [
        "Ġup",
        "load"
      ],
      [
        "Ġpro",
        "ving"
      ],
      [
        "tain",
        "ers"
      ],
      [
        "Ġwi",
        "dth"
      ],
      [
        "Ġcontribu",
        "ting"
      ],
      [
        "48",
        "7"
      ],
      [
        "an",
        "ces"
      ],
      [
        "nI",
        "S"
      ],
      [
        "nI",
        "n"
      ],
      [
        "nI",
        "nstall"
      ],
      [
        "si",
        "der"
      ],
      [
        "ĠB",
        "Y"
      ],
      [
        "ĠB",
        "UT"
      ],
      [
        "ĠD",
        "iscord"
      ],
      [
        "ĠD",
        "IS"
      ],
      [
        "ĠV",
        "ulnerability"
      ],
      [
        "Ġli",
        "ke"
      ],
      [
        "Ġli",
        "mited"
      ],
      [
        "Ġne",
        "w"
      ],
      [
        "Ġne",
        "ga"
      ],
      [
        "Ġsh",
        "uti"
      ],
      [
        "Ġsh",
        "ould"
      ],
      [
        "Ġsh",
        "ortcut"
      ],
      [
        "Ġinte",
        "gration"
      ],
      [
        "Ġinte",
        "rest"
      ],
      [
        "Ġinte",
        "grated"
      ],
      [
        "Ġpr",
        "oduct"
      ],
      [
        "cord",
        "ing"
      ],
      [
        "237",
        "289"
      ],
      [
        "PO",
        "SE"
      ],
      [
        "PO",
        "ST"
      ],
      [
        "gu",
        "ration"
      ],
      [
        "id",
        "na"
      ],
      [
        "nT",
        "his"
      ],
      [
        "nRe",
        "lease"
      ],
      [
        "nRe",
        "distribution"
      ],
      [
        "Ġ*",
        "("
      ],
      [
        "Ġ\\",
        "\\["
      ],
      [
        "ĠRE",
        "QUIRED"
      ],
      [
        "Ġab",
        "out"
      ],
      [
        "Ġab",
        "use"
      ],
      [
        "Ġar",
        "ound"
      ],
      [
        "ndar",
        "d"
      ],
      [
        "Ġsta",
        "rted"
      ],
      [
        "Ġsta",
        "ndard"
      ],
      [
        "Ġrep",
        "ort"
      ],
      [
        "Ġrep",
        "hra"
      ],
      [
        "Ġrep",
        "roduce"
      ],
      [
        "Ġrep",
        "resentation"
      ],
      [
        "ĠAN",
        "Y"
      ],
      [
        "ĠCO",
        "PYRI"
      ],
      [
        "ĠNO",
        "T"
      ],
      [
        "ĠNO",
        "TE"
      ],
      [
        "Ġnox",
        "file"
      ],
      [
        "Ġori",
        "ginal"
      ],
      [
        "Ġissu",
        "es"
      ],
      [
        "Ġdepreca",
        "tions"
      ],
      [
        "Ġparticipa",
        "nts"
      ],
      [
        "93",
        "3608"
      ],
      [
        "ANT",
        "AB"
      ],
      [
        "OR",
        "S"
      ],
      [
        "au",
        "th"
      ],
      [
        "back",
        "end"
      ],
      [
        "mon",
        "th"
      ],
      [
        "ning",
        "s"
      ],
      [
        "Ġk",
        "now"
      ],
      [
        "Ġru",
        "ns"
      ],
      [
        "Ġ...",
        "'\\"
      ],
      [
        "Ġ...",
        "?\\\","
      ],
      [
        "Ġ...",
        "}\\"
      ],
      [
        "ĠDe",
        "cember"
      ],
      [
        "nde",
        "v"
      ],
      [
        "Ġsi",
        "mple"
      ],
      [
        "Ġsi",
        "de"
      ],
      [
        "Ġsi",
        "mpli"
      ],
      [
        "str",
        "ing"
      ],
      [
        "Ġcre",
        "ated"
      ],
      [
        "Ġcre",
        "ating"
      ],
      [
        "Ġcre",
        "dentials"
      ],
      [
        "Ġret",
        "rieve"
      ],
      [
        "Ġform",
        "s"
      ],
      [
        "\\\"\\\"",
        "\\\"."
      ],
      [
        "Ġ20",
        "19"
      ],
      [
        "ĠSSL",
        "Context"
      ],
      [
        "Ġna",
        "tionality"
      ],
      [
        "Ġmake",
        "file"
      ],
      [
        "Ġprovide",
        "s"
      ],
      [
        "ĠDro",
        "p"
      ],
      [
        "Ġfeature",
        "d"
      ],
      [
        "Ġdocu",
        "mented"
      ],
      [
        "AB",
        "LE"
      ],
      [
        "Bu",
        "gfi"
      ],
      [
        "Bu",
        "ild"
      ],
      [
        "CL",
        "AI"
      ],
      [
        "CL",
        "UDING"
      ],
      [
        "LE",
        "ASE"
      ],
      [
        "Py",
        "PI"
      ],
      [
        "co",
        "me"
      ],
      [
        "col",
        "or"
      ],
      [
        "for",
        "mat"
      ],
      [
        "mis",
        "sion"
      ],
      [
        "mis",
        "sing"
      ],
      [
        "nC",
        "opyright"
      ],
      [
        "nC",
        "URRENT"
      ],
      [
        "ps",
        "f"
      ],
      [
        "Ġun",
        "accep"
      ],
      [
        "Ġun",
        "wel"
      ],
      [
        "ten",
        "tion"
      ],
      [
        "requi",
        "rements"
      ],
      [
        "ous",
        "ly"
      ],
      [
        "Ġac",
        "ross"
      ],
      [
        "Ġac",
        "cording"
      ],
      [
        "Ġat",
        "tention"
      ],
      [
        "Ġav",
        "ail"
      ],
      [
        "Ġav",
        "oid"
      ],
      [
        "Ġsub",
        "module"
      ],
      [
        "Ġsub",
        "modules"
      ],
      [
        "Ġca",
        "ste"
      ],
      [
        "Ġca",
        "ching"
      ],
      [
        "Ġcol",
        "or"
      ],
      [
        "Ġcol",
        "lections"
      ],
      [
        "oduce",
        "d"
      ],
      [
        "Ġtru",
        "st"
      ],
      [
        "Ġtru",
        "sted"
      ],
      [
        "Ġdo",
        "esn"
      ],
      [
        "Ġdist",
        "ribution"
      ],
      [
        "Ġdownload",
        "s"
      ],
      [
        "Ġdownload",
        "ed"
      ],
      [
        "Ġextra",
        "s"
      ],
      [
        "depend",
        "ed"
      ],
      [
        "depend",
        "ents"
      ],
      [
        "470",
        "81"
      ],
      [
        "Ġmain",
        "tena"
      ],
      [
        "Ġmain",
        "tainers"
      ],
      [
        "ĠFix",
        "ed"
      ],
      [
        "ĠIN",
        "CLUDING"
      ],
      [
        "Ġcompa",
        "res"
      ],
      [
        "Ġcompa",
        "ct"
      ],
      [
        "Ġper",
        "mit"
      ],
      [
        "Ġper",
        "mission"
      ],
      [
        "Ġupda",
        "te"
      ],
      [
        "Ġupda",
        "tes"
      ],
      [
        "Ġupgra",
        "de"
      ],
      [
        "Ġupgra",
        "ding"
      ],
      [
        "AsyncCrawlerProcess",
        "Subprocess"
      ],
      [
        "Ġname",
        "s"
      ],
      [
        "ĠURL",
        "s"
      ],
      [
        "Ġ{}.{",
        "}."
      ],
      [
        "Ġ{}.{",
        "},"
      ],
      [
        "Ġcurrent",
        "ly"
      ],
      [
        "ĠCONTRIBUT",
        "ING"
      ],
      [
        "ĠCONTRIBUT",
        "ORS"
      ],
      [
        "AsyncCrawlerRunner",
        "Subprocess"
      ],
      [
        "')",
        ")\\"
      ],
      [
        "'{",
        "\\\""
      ],
      [
        "725",
        "933608"
      ],
      [
        "756",
        "342717"
      ],
      [
        "Download",
        "s"
      ],
      [
        "EL",
        "OG"
      ],
      [
        "EN",
        "ABLE"
      ],
      [
        "En",
        "code"
      ],
      [
        "ENS",
        "E"
      ],
      [
        "Fn",
        "ZS"
      ],
      [
        "GH",
        "T"
      ],
      [
        "IL",
        "ITY"
      ],
      [
        "IDE",
        "D"
      ],
      [
        "ITE",
        "D"
      ],
      [
        "Jo",
        "in"
      ],
      [
        "Kee",
        "p"
      ],
      [
        "Loc",
        "al"
      ],
      [
        "Nz",
        "A"
      ],
      [
        "OT",
        "ExNg"
      ],
      [
        "On",
        "line"
      ],
      [
        "PRE",
        "SS"
      ],
      [
        "Pack",
        "age"
      ],
      [
        "RCH",
        "ANTAB"
      ],
      [
        "Sh",
        "ort"
      ],
      [
        "TW",
        "ARE"
      ],
      [
        "TOR",
        "Y"
      ],
      [
        "TIC",
        "ULAR"
      ],
      [
        "UGFj",
        "a"
      ],
      [
        "UNRE",
        "LEASE"
      ],
      [
        "ap",
        "pli"
      ],
      [
        "ain",
        "able"
      ],
      [
        "async",
        "io"
      ],
      [
        "but",
        "terfly"
      ],
      [
        "bro",
        "tli"
      ],
      [
        "ban",
        "ner"
      ],
      [
        "basi",
        "c"
      ],
      [
        "cf",
        "la"
      ],
      [
        "cha",
        "rset"
      ],
      [
        "ftp",
        "server"
      ],
      [
        "fur",
        "y"
[...]
